3DFF85D7
BD4E3476
BBA50D6B
3D72F017
3D814C66
3CD4C122
BD82C882
BCFE8039
BBCF850E
3DB045FE
3DD734B5
BD9B63D4
BB5B6A1F
BCE6AB9B
BD2045BB
3D8A7158
BD056C51
3D83254E
BBC58687
B9191794
BCAFCEFB
3D5A1661
3E12F2FA
3DEFDB0A
BDF9641F
BDCCF95D
3C2EDDCE
BD81A36E
3CB0D520
BD751BD6
BD2877EE
3D24E37A
398AEFB3
BD0D690A
3C9C4114
BD7FA094
3CEB2F23
3D3B3312
BD22EE42
3D4B2746
BD655E29
BCFA41E5
3B914B16
3CEAB368
BD08D196
3D356EAD
3D70DB6A
3B8D21BC
3CE8943E
3D1377E2
BCCA1AD6
3E07BE98
3C8DEF41
BD6427C8
BD778466
BD22A2C2
3DA32336
BD08E475
3CD2FE3F
3DAEE393
BBDE97D0
BD34A98B
BAB545C8
BB3CAD9B
3CF7963A
BB3D230C
BC2B7564
BDA69AD4
3D1C853C
BD389D6B
3C7676EA
3D0C447C
BCC330D7
BD90D38D
BC4BE1EB
BD96F113
BD63F78C
3D1A1987
3E08F217
3E1AB0C9
3E84666F
BD768273
3D328955
3DC114D3
3D0318B9
3E462670
3DA80E06
3CE61AE7
BD1D67BA
BC619B91
3D1525CC
3D2BA494
3D737B8D
3D4521DE
3CA9BCFD
BAB5AA71
BD4A84BE
BC92C062
3DCDBB5A
BD1B4352
BD6B367A
BD037B4A
3C86BBDC
BD332592
BE3AE6C9
BDF5768A
BD182FD7
BE122468
BC1DCF89
BDE80496
BE78DC55
BD23FDD6
3DAE1B4C
3DE20FF5
3DCDE1A0
3C6FB6DD
BCC6045C
3E0B82C3
3DB1EC92
3D7A6ACA
BC72A5A4
BD16ECE1
3E00BD01
3C8A2446
BCE1C582
BBF9C1F8
3C8D8CB0
3CBAD5BF
3E1CD9A5
3C288F00
3DD7E1B9
BDA34C1B
BCED7A57
3D4AE42A
BCA19221
BD10ECB7
BD085D31
3D94DF05
3BAD46F6
BD99BE4D
BE35AB7E
3CFBEDB7
3D8A4C1F
BDAB252D
BE0A60D4
BDA39475
3B815E39
3CA92C49
3D916CA4
3C7EC13C
3D350B0F
3CD6D5D0
3D2A24CC
BD24228A
BE5563ED
BE04738A
BD801DE2
BD46CFC8
BD588E37
BE028B2A
BE50F0A6
BD072F34
3BA48733
3CFA99FA
BD0A9DE9
3CD7C915
3E0C332F
3D8FDB0A
3C4486AD
3D2B0FAE
3D841787
3DB9157B
3E003B82
3DCC0C63
3D3192EA
BBF9B995
3D4D306A
3C0B1141
3DA01B43
BD5C8755
BD1754B0
3D2C5C14
3D9586CB
3DEA6B94
3D2A4DB1
BC5A87A0
BC145F9E
BD906A2B
3D316C1E
3E1DA1A9
3E06B335
BD8A643D
BDA47779
BD5E40C8
3D2EA0FD
3CC78423
3C18BF7F
BD88C3F4
BD8A91DA
BD198D04
3BC1CA3A
3D3CC294
BC9F383F
BDF3D8E0
BDDE1006
3D065E89
BB7ABDA1
3C914B16
BD39CB68
BE803926
BE601EAC
BE3BD7B2
BD907076
BCA6EDAB
BE1937D2
BE8032DB
BE8E5FB7
BE8F42FF
BD5209EE
BD2177EA
BCCEB789
BC4A4F44
BDF63CB8
BC4FFA7F
3D07F994
BC9FE005
BD18D9B6
3BF61672
BC9B36BD
BBFDC9C5
BC7EA3DF
BCEF1349
3DBE1DA8
BC0C2E77
BD52806B
BCFDCDF7
3D98409E
BB94EE39
3D627286
3A1D0636
3CC63CFB
3CA31E7E
BBF294DD
3CD0C804
BB721709
BC2F3E47
3D158C8F
BCF4ABA4
3B84E832
BC18D8A9
3D159A31
3E25A7D2
3DA14E7F
BDFF7942
BE27DD44
BE2789E7
3E050332
3E0C857F
3D521577
BD1A07B3
BE59E237
BD04944F
BD293C04
3E0E39F7
BDA66E44
BDE4712E
BE4EB0B8
BCD86CA9
3D2A9F7B
BC54BAD8
3CA37692
BD893FAF
3CBC7D5F
3D24BA95
3DB3E143
3CEC7EAE
BD38A2A9
3D1FD157
BCD0CA1D
3B4C78EA
3D3E6A33
3D22EA10
3C387BDD
BCCD91EF
3CDE56CD
3CF4299E
3CEC3DAB
BD7DAD75
BC8AB0C9
BCE5DBFD
BCC404A7
BD2F35E3
BC850BD8
BC52F1AA
BBD84D34
BC3DA0E0
BB91D14E
3C476D11
BCF63800
3C8F3238
3CE09FE8
BDEF88B9
BCC7CD8A
3D241D4B
BD026CC2
BC65F30E
BDB03E21
BBBB01C9
3D3F5409
3D20999E
BC9D6ADF
BC76512B
BD54898F
BD8475E6
BDAC1440
3C231E7E
3BD801B4
BD04AC6D
BD316E37
BC7DE721
BDA453D2
3CBEBBFD
3DAAB92C
3C51BB49
BD3BAA9B
BDBB938A
BC805C46
3D746CB9
3D88EE6C
BB18F606
BD84D5D8
BB8650E7
3CA9F384
3D72C94B
3C276D98
3C505293
BBB05B7D
3D66FD65
BB405921
3C96D8F5
3D6A3162
3D92F017
3DDA6A44
BC6BFA8F
3C1B3073
3D9824D5
3C83D9A9
3D992E1F
BD07AD08
BD2009F6
BD4DCFCC
3A163561
3B9F4906
BD3676EA
3CB08356
BD44B5DD
BC3C72E2
3C4F5F4E
3C2F2D80
BC32A6B1
3C4F7015
BD1C7FFE
3CC5BF27
3C5C37A4
BD0EB570
BD414941
3C0F14DB
3D75B91F
BB90470B
BD7355CE
BC55CFAB
3C0F605B
3CB6D00B
3D6C8A37
BADD3FE2
3BBC382A
BD44C166
3D94E5D6
3DBCF56F
3D307AF2
BBB7F5A5
BC356324
3DFCE421
3D8D6239
3CA5C811
3D72D7F9
3CCF850E
3DF17CE5
3D8369FD
3CED3522
3D17F738
3D074C90
3E0C5868
3B5E0935
3DF5A858
3DD1DDE3
BA0E9B39
BD476AF9
3DCF73C1
3C5199BB
3CB69985
3E087B9A
3DBAB10C
BD87607C
BD1FFC54
BD0D759F
3D82EF4E
3DECE704
BDC8B3B3
BDD5158C
BE0AE600
BCDD0310
3D567019
3C87A4A5
BD138690
BDF08EDE
BD0560C8
3C4D39DA
3D7D2D88
BD32F230
BD1CD3E1
3C0ED1BF
BCF7079E
BD437E6F
BBB5BB38
3CB9F55A
3ADE4C51
BC479703
BC010E88
BD138DE7
BDDC2C1B
3D824C40
3DD5D1C4
3E0F1349
3DE99631
3D6922D9
3DEDE97D
BC94D50F
3D1A543F
3DBB38D6
3CA8B6D8
3CE70197
3C99B0AB
3CB14446
3995F245
3D218ACA
BC2F1887
BD08722A
BDC87336
BE159D56
BC98A223
3CC1F42C
3C428F5C
BD40E6B0
BBB178B3
BB9802C1
BC76F08D
BD83B3EA
BD6D0D4A
BD0DB270
BD7F4667
3D075D57
BCFD86A9
BD078423
BD94FF86
BD708DD2
BBA0CAE6
3C760179
3B981BEB
3D08C826
3BE8294A
3C87C632
3CD625A7
BA9AED57
BC184A0E
BC353932
3CF0153C
BD35653D
BD66E547
3D88B5CC
3C48E25D
BD309C80
BC3D87B5
BBFE9B7C
3D720D99
3E20D3D0
3D691644
3E2F8940
BC428F5C
BD41B435
3D0EBBBA
3C4A70D2
3DF7B5AF
3D1D8E86
BD5B4891
BC94DB59
3D7ABC94
3D9E0D67
BD7E64F5
BE224D0A
BE0A7371
BA8C1DB0
3C60FC2F
BCEA28FE
BDBB25F6
BB8198F2
BDD0F8C6
BDFD7B20
BD40D4DC
BD5C0336
3C8307F2
3D95AB7E
BC0522EA
BD0FCF81
3D8C38F3
3D261D00
3D9C74FB
3DBFCA86
BBC36DA8
BD85EBB7
BD4CBD12
BD1EF955
3C94C22F
3D944CBE
BB6EAE9F
3C3CAD9B
3D7FB69A
3C118E32
3BD002E2
3CF138BD
BCAF533F
BC4B5350
3CEC093E
BCC8D196
BCE2C98E
3B8A6117
BD014B5A
BB2E429E
BCB94318
BD1E8709
BD2DB941
3B70E90C
BD3ABC94
3DC364BF
3D9F01B8
3D5785F9
3C634763
BDC2B841
3A1B738E
BC3C5DEA
BC2AEAFB
BD42DCF4
BB9A0AD9
3D18BB4D
BCE9185D
BD46CFC8
BD94F82F
3D3F5409
3C3D4CFD
BDA6ED24
BD3123C4
3D8FF10F
3D50C0AD
3D769015
3C1DBA91
3D3FE197
3C8574B4
3CEFCBD5
3C6AE18B
BC32FA94
3D06F694
BD0AB607
BC557BC8
3C6C8D5C
3D534ACB
3B17E996
3D3BB1F2
BCFCB70B
3CD67989
3D9D4D83
BCFA8933
3DA5C91D
3D8B8BF0
3D562BF1
BD0C4EF9
BD3A9E2C
3D8E6320
BD13A605
3D03CC08
BAE3CD9A
3BFACE68
3D5B0468
3D561911
3C42F838
BC7A2270
BC093FAF
3C919264
3D1626B3
3D5A1DB8
BCB8E2A0
3A1AED57
BDA426BB
BD23C85C
3D53C89F
3D0724B7
3DE69596
3B97C808
BC919AC8
BC74BE83
3CDF47FA
BC2AB8A6
BCC30F49
3C41DB01
3BB7D417
BB0F2171
BD0195CD
3D23F141
3CCB1CC9
BC54E4C9
BBA3D70A
BCAAB042
3CEA26E5
3CCC2D6B
3D0F51AD
3C9F18CA
BCA8198F
BA43D252
BE157DE1
BE1EF5A9
3D8C57E2
3DB1715C
BDB1A112
BE0606FB
BD95C7CE
3DC785B6
3D4DB9C7
BCDEE99A
BD7E4799
BD2F74CD
3CC92360
3CD2D880
3D85B6C3
3DB0C027
3C8C79F6
BD372820
BBB73D19
3CD86CA9
3D671151
BBC4F7EC
BD72EBE6
BD313DFB
3C8F29D4
3D374DE0
BD2BFA8F
BE03A1D3
BDFA15DB
3D5F2453
3D29D841
BDC03DDE
BDFB0575
BDDE6ABA
BDBA493D
BD870111
3CE1CBCD
BD13F6C2
3C5AF4AE
BE25B036
BD3F4BA5
BD3F3BEB
3C821294
3C14C448
BD8811B2
3D0A5269
3BEE4192
3D7355CE
3DB5A07B
3E0626B3
3E259EA5
3D96B767
3D21B5C8
3D6C710D
3DAB54E3
3DCE8859
3D891212
BCEF1BAC
BC9FB1E2
BC95A4AD
3B99AE92
3C319A41
BD965F52
BCDD095B
BD361028
3C24095F
BD521145
BD56F113
BDD19F80
3D048E04
3D083BA3
3CEDACAC
BD9A0CF2
BD03D252
3BE5FFA4
3CC45ED5
BD5CEBFF
BD4193B4
3CEB7CBB
BC89D063
BD0C282C
3D680F13
3DA9DF11
3CC5F9DF
BD4B0D0F
BD67D45A
3CD757D6
3D83DDDB
3C991362
BB45EB31
3D09118C
BD067169
BCB1C64C
BD10A244
BD4B3F64
3BAD0C3D
BD7356DA
BC62F380
BC1A2835
BD698CC1
BD50CA1D
BDC8FC93
BE01465F
BE226245
BBEABFFD
3C1F4D38
BCB2830A
BD55D91B
BC74F0D8
3CF74CD3
3B9795B3
3C9FC4C1
BC95E5B0
3D7168F9
BBF6CEFF
BCA250F8
BC9D1915
3DA5DE16
3E0A426C
BC5C011D
BDFDF19D
BD8C3DAB
3D0FBFC6
3ADD3FE2
38DA1A93
BC929AA2
BA00F990
BC4FA26A
BCF10ECB
3DA4EC63
BBEAAF36
BCCC61D8
BBD5BEE4
B95E4C51
BBD04E62
3D0A2553
3CD2439A
3CBC6EB1
3C977A70
3CF1E29B
3C7BA882
BC5084E8
BBDD590C
BCD7B635
3C76EC5B
BC985059
BD0C9D9D
3C203819
3D23CC8E
BDA8F5C3
BDB87161
BE0190D1
BE269A0B
BD710343
BCC6173C
BE43B752
BE2D82BA
BD8C6F7A
3D765DC0
3D9676EA
BCEF9B99
BE0015C2
BE039EAE
3B1EDBF9
3D2FF3AE
3E258149
BD5D6495
BD144CBE
3B939EAE
BA813CAC
3E31D81F
3DFDED6C
BB32E9CD
BCDC69F9
3CB9F341
3D704578
3DDF02C5
3D27BE55
3D550870
BDBCEF24
3CBC4B0A
3D53F184
3D56A055
3CA8FC0D
BD69A3D3
3CF7E804
3D057D18
BD911CF3
3CEB0963
BC913E81
3C9D5E4A
3C922531
BC885F4A
BC4B3A26
BD4F5E42
3C92C493
3BAD2568
3C8194C0
BCAEBA28
BCA6F3F5
BCF61ED6
BD81B3AF
3D2E4B02
3D1CC31A
3D855D1C
3BC70868
BD66234B
BD4B9991
3D5842B7
3B8B8F15
BC690FF9
BD7C5261
3CC64990
3D47C73F
BC8E043A
BD1846E9
BD43D684
BC8FBCA1
BC484F90
3BC77575
BD49ACBD
3D9EC99F
BCF296F6
BBD82342
BD0DF698
3CBB57C5
3CA5247D
BD15EF20
BC6F77F2
3CB7B8D4
BD23E293
BD08D196
3CB8151A
3D29FE00
BD061954
3D086057
3D83211D
BBA7C5AC
BCACB429
3CF15A4B
BC0E7147
BD09B845
3D08E044
BC4408D9
3AB71B8B
BD57E88A
3B306C44
BCF646AE
BCDB5B70
BDE14AD3
BD3224AB
3DFD017E
3E05A3A1
3DDE0829
BD9A20DE
BD407BBB
BD4C1440
3D5AE1CE
3D912125
BDF6C051
BB246E09
BD81D9F5
BC94A904
3D65B856
3CAD03DA
3C8B9BAA
3CD5CFAB
3C8A30DB
3D031056
3CD477BC
3DE908A2
3D1F7942
BC3BB624
3C45E2CE
BCE92924
BD7749AE
BE017C5F
BE997E13
BE74F3FE
BD379A6B
3D7D86A9
BCD6FDA8
BDE22468
BDDDC593
BDC945FA
BD17FD82
3CE7685A
BD851655
BD26BA49
3CDCBBC3
3D350C1C
3CF646AE
BBDF58C1
BCE2B8C7
BD240E9D
3C8B60F2
3CD89ACC
3CC18B50
3D7F3062
3A8D4BAD
BD43B4F6
3C86FEF8
3DA9B1FB
3DBB66F9
BD64840E
BDE2E44B
BD52DBA5
3D61D862
3E42C40D
BCAAD1D0
3CA3A8E7
BDD40D4E
BB954A80
3C3C59B8
3CA72863
3D050BD8
BDD27D46
BD8866A1
BDC189BE
BD007571
BD17720D
BD19ED7C
BD00C954
3C4896DD
3CE54717
3DBE0158
3D8F6CF0
3D7A4B55
3D0AFC48
3D8DBE7F
3D4ABA38
3C7C2EBA
3D3FFBCE
3D4B6630
3D324745
BC28C155
3D0D8666
BD157CD4
3CF81840
BE04F5D3
BE3B2746
BD94B05B
BD60E411
3CEE7818
BDE28FE2
BD544CBE
BC6108C4
3D857C0B
BC477575
BD062A1B
BD6ECD08
BE026916
BE0EA034
BE1DCB9B
BD1ADA77
3D1D7BA6
3D141C82
BD90E12F
BD6F533F
3D237586
3CC5D207
3DB6ECE1
3D83DCCF
BBEA5B53
BD894F6A
3CC6EB0B
3D1AB085
BC5616F8
3D3677F7
BD9EC354
BD11B2E6
3CE52DED
3DD0E886
BB9142B3
3CCC2B52
3D04B5DD
3B782F51
BCBF7058
BDAFDB0A
BC168D76
3D880C74
3CAFA93B
BD0DEF41
BC918C19
BCFD1DCD
3C91E215
3C8D8A98
BDB0B06C
BCB1140A
BE0DFA44
BD9B2464
BDAFFD1E
BDD3E5FB
39D801B4
3D04C272
BC99999A
BDD97918
BDBCD0BB
BD8F5F4E
BD1A9542
BB991794
3BE3369C
3D61A60D
3CA4CE81
BD05BC02
BCC197E5
3D2C16DF
3C8E51D2
3AA95853
BD69BCFD
BDBD1DCD
BD10635A
3C9A34CA
3BC9D170
BD2543F2
3D6672FC
BD963455
BC5B50F4
BD4AE85C
BC60370D
BBADEEBB
3C4BE1EB
3AE92D56
BB98EDA2
BC92FF4C
3DE799A2
3E07FF15
3E353587
3E5AF0BF
3CC78A6E
3D5799E5
3DC3D252
3D758299
3C8C3B0C
BDCA1944
BD621B7E
BB12BC30
BC962068
BCEB723F
BE2B923A
BDB6922E
BD0C319C
BDC23748
BDC83772
BE0F87F0
BE5C304D
BE0D7A14
BE34D4CC
BE18EB46
BCF6FD22
3C742353
BD9523B3
3D69F9CF
3C4E789E
3CDA4ACF
BD3CE421
BB715E7D
3D45718F
3C719D67
3D1EA78B
BCD19158
3C9E57DA
3D3BB518
BC920C07
BC8055FC
BBEDF612
3D2E9143
BC67BC3C
3CF6BC1F
BC990D17
3B80AE10
3AD9F905
3C7034B1
3D3DFB0D
3DE77E5F
3E3397DD
3DF70DE9
3DBD805E
3BA400FC
3B7B762E
3CB5568F
3DD64F12
3D670E2C
BD9A3EC0
BD8AC860
BCC5F7C6
BD1C9C4E
BDCD3BF3
BD9CA750
BD6DE332
BDEA23C0
BE12135E
BE032724
BDE29CFE
3D145A60
3C35CBFF
BBFA82E8
BC12B3CC
3CFFAE36
BD847CB7
BD17C915
BDF07D91
BB8387DF
BC1906CD
3D05EA25
BCA20792
BC90F302
3D4561D4
3BDEB95E
3D603819
3C916EBD
BCB9170D
3D56030C
BA80F990
BCBC2118
BCF6FB09
BD853198
BA96BB99
BC38C75C
3B49B845
3C59E83E
3AB6B6E1
BBBD3C36
3D062D41
3D0CD856
3B921CCE
3CC3CC08
BCED0918
BC69D0EA
BCFB8B26
3C2647FE
BC187C63
3C6C02F3
BC89F40A
BD395D4F
3D2FED63
BB775537
BD1FD157
BCB5115A
3D651B0D
3D008206
BCE75361
3BEC397A
BCA686E8
BC95E7C9
BD121251
3CB23BBC
3D1AAE6D
BC2B2E17
BBF0281C
3DA0D6F5
3CFDDCA5
3D85321E
3D688ACE
3C8B2E9D
BDA3F78C
BCCB9ECF
BCF32592
3D08E79B
BCDD0742
BC7FB04F
BDA8C47A
BCBADC0A
BCD2D235
3D4BFB16
3CA00193
3D302D5A
BD5D8E86
BC49A34D
3D17D8CF
3D8DEB96
3C0D0892
3D1A5DAF
BD18E001
3E0C4007
3DE924F2
3DA35372
3D172CD8
3B94C448
BCF6E3F8
3D9C44BF
3D62EE42
3D359579
3D06002A
BDCC4370
BD84DB16
BD3DCF03
3DA6ADB4
3BBBD380
BD65CB36
BD48ABD6
3D35D895
3CE9CCB8
3C8999DD
3CCCE1C6
3DE55433
3DEB1D50
BD5DE9C0
BD0790B8
3CEACC92
3DD61D43
3DF78812
3D352DAA
BD82A23C
3D77A2CF
3E051373
3DC9F517
3E2CB35F
3CE79464
3E0E3044
3DC6AE3A
BD4AE85C
3DAD66F1
3DD9B457
3CF824D5
3D95D3DD
BD8A3CEA
BCF9AAE7
3C4E3583
BD234331
BD97E996
BD904C49
BD667514
3A41B973
BD37542A
BC480C74
BCFD156A
3C25D6BF
BB98C3B1
3C92EA53
3D45B4AB
395801B4
BC9B7E0B
BCAFEC57
BCF5D356
BD339F34
BC1EB207
BC8828C3
BD087DB3
3D0286F9
BC53B29A
BD49C2C2
BC2CF313
3C544567
3C6B9E49
3C1F16B1
3C0116EC
3CBAA79C
3CACF52C
3CDDF655
3D141A69
BC9FD9BA
3CDED6BB
3D0FD7E4
BD16323C
3D11E860
BCD903A7
3CA25D8D
3CA78290
BC95DB34
BD06F04A
BC664B23
3C5DEBD9
BCAD080B
BCA47022
3CECFA6A
BCC829D0
BC0B8AE3
3C7B506E
BC8E2196
BCFCC187
3D40D5E9
3D592EA5
BCE4E69F
3D34FE7A
3CEB8B69
BD2B50B1
BC2E8188
3C942D49
BC1DE8B4
3C93AB43
3CDCCA71
3CCBB1AF
BCBDD11C
3C04BA0F
BCC32874
BCCF0F9D
BC8CF399
BCE25205
3C94D50F
3A854CDB
BC57BA67
3A766A55
3C3E1EB4
3D80E8C9
BCBCAFB4
3D14A5DF
3CE455EB
BCD7CB2E
3CFE5EAB
3CC7B246
3D37585C
BC09374C
BD9B3205
BD7D0BFA
3D3507EA
3D55E9E2
BC02A130
BD1B0037
3D3C792D
BCC0895D
BCF87AD1
BDEC7000
BC93CEEA
3CDF505D
BD9E9318
3C045996
BD8A6A01
3CBA237D
3C070974
3CA5BB7B
3C44FC1E
BCCC4CE0
3CACDC01
3CA22920
BD868017
BC82CD3A
3C8CE704
BC801712
3D30B06C
BC47B891
BC81ABD2
BD15043E
BC7E047D
3D00F990
BBBF444E
3C16C3FC
BB5C4439
3AB1FEEB
BD0229A6
BD2CFD8F
BD2A619E
3B6E17A0
BA9784EC
3CEE8D11
3D2BC2FC
3C1E3C97
BD35C183
BC48711D
3B9C560C
3C1D16FD
3CBAB218
3D0AE536
3CA46BF0
BD0069E8
BD5F6BA0
BCB9A9DA
BB92EE85
3CFFF9B5
BD1EB852
BBCD4AA1
BC08509C
3D1C768E
BC01626B
BD040182
BCC6BF01
3CE01366
BD408C82
BC01FD9C
3C4DF267
3C632E38
3C302928
BC1B66F9
3C9A500D
3D82949A
BC150B95
3CA19221
3CC27419
BD0BCBE6
BC87C632
BD036545
BD036220
BCB480A6
3C30CCBC
BD246067
BCDB573F
3D4B73D2
BD0C33B5
3C0DB8BB
BCB3B752
39CD8559
B9E06530
3D12EF91
BB46D613
BC1C38B0
3C652157
BD2F954F
3D0AD03E
BD14F15E
3BDE7642
3D888E7A
3CF264A1
BC9E6256
3D0817FC
BD16FEB5
BC71F9AD
BD202321
B7DA1A93
BC4C1CA4
3B99A62F
BCD6DC1A
BCEC204F
3D1971C1
BCFE9FAE
3AE73605
BCE68A0D
BCFD694D
3C9DE8B4
BCF2ABEF
BC6B399F
3C9A8262
BBDFACA3
3D6FC58B
BBA9930C
3D39A8CE
BC7A93AF
BC751698
3D4BD76F
3C8C4589
BD3AC2DF
BC6E6751
BCA5DF22
BCD44FE3
BD171194
BC6BEDFA
3C49C90C
3D1C8FB8
3D34C6E7
BC46540D
3BFBB0E6
3B052B4E
BD139431
3C8DEB10
3A788334
3CA7BD49
3CA2DB62
BD4F0F9D
3B5F3733
BB1DF117
BD740C41
BD245B29
BD1ADC90
3C2C18F8
3C893101
BCDA87A0
3D15B899
BCC73259
3D5B6A1F
BC2D4B27
3D06E6DA
3C667946
BD184B1B
3D15B467
BCC00970
3CBC33F8
BBAB81F9
BCADDDF4
BC9DECE5
BCBE89A9
BD16E8B0
BD2A3DF7
3CFBE985
BA1A671F
BD0E4218
3D1FC7E7
3D015E39
3AD41312
3CAB239A
BACA3E7D
BD6132B5
BB8C9321
3BB5A20E
3CD757D6
3D6C11A1
BC5EEBB3
3D850D6B
BCD145D8
BCC16378
3C82AFDE
3CDB445F
3D25A89C
BD0B588E
3CD9988D
3D362520
BB029CFE
3C087EBF
BD9D4F9C
BCCE52DF
BAAE9681
BB68D973
3C215DB3
BB097E99
3C9E9F27
BBBEE808
3A1BF9C6
BC9D8A55
3C529132
BD304146
BD13AD5C
3C0726D0
BC9858BC
3C6AFAB5
3C29EB20
BB397785
3A078748
BC40980B
BC20AD8A
BC6BFEC1
BD633ACD
3C1856A3
BC054CDB
BDAD1202
BD6368F1
BC089C1B
BCD83622
3CDF1E08
BCA7B4E5
BB768BE3
3D158A76
3A1246BF
BD18E326
3D4EBCC7
BCD6C93A
BD01D191
3C5BB9D0
3C67C8D2
BB0F10AA
3D180A18
BCBD5779
3B4E5F74
BC22AD3F
BBA4766C
3AED3D86
3C19029B
BCDD462C
BD003255
3C52A62B
3B4D0FE9
3B4D0FE9
3CD21BC1
BCE85986
3C900C52
BBF8487C
BAA393EE
3C70563F
3CDABC0E
BC2EF2C7
BB1EDBF9
BC17F62B
3C84F095
BC82235B
3D0A771D
3C1BB6AA
3BFA5094
BCB3A8A4
3C2BB880
3C04C272
BCE3779F
BB9C12F1
3CD7E23F
BBD9F0A2
BC3E553B
BB028C37
3D06099A
BCC71F79
BCB0D738
BD0C5005
BCE73A36
3CB2B778
BBB5DCC6
BC37C782
BBAF5771
3C9BC771
3C00303C
BCEEB91B
3D145415
3B344A1F
BC236199
BD4DD0D9
BCC07033
3D229308
BBBB6ED6
3BBC2FC7
BC576684
3C288F00
3CACB641
3BDCF462
3D3405F7
3D3B6998
3CF7963A
BB551F82
3C1D1B2E
3CAFBE34
3CEE5040
3C0F7DB7
3C0012E0
3C0B04AB
3D103644
3B0051CA
3D4AD03E
3BD0678C
3BC6E6DA
3CC6BF01
3B977425
BD2B2181
3C7BC1AD
BC58D36B
BBCDA6E7
BC3CCF29
BC4D39DA
3CEB15F9
BCAFAD6D
3A2AA7DF
3CE3AE25
BC474320
3C90BE94
BD0E336A
BD046D83
3C1A62ED
3D076D11
3C86E9FF
3C9E4B45
3B0461FA
3BFB7E91
3CF7DB6E
3D54434E
3BF2D7F9
3C9C68EC
BD0C9321
3C8DDC62
BCB1BDE8
BC9435AD
3D27631B
B8627E0F
3C5AD320
3C4AE211
3C6C397A
3B63150E
BD535DAB
3CB04AB6
BBFA5094
BCD24181
BBC79F66
BC320B80
BCCB9ECF
BCB7110E
BC27008A
3CC21C04
BC5C69F9
3CF59685
3D20D34A
BC0826AB
BCBC9CD4
3B8E820E
BC23443D
3C904F6E
BCF1EAFF
BD95CAF3
3C9309C8
3B503537
3B9D840A
3D00181E
BD468449
3CFE718B
3CB78466
3D373C0C
BD2C52A4
BCB07AF2
BBC9AFE2
3CFDCBDE
BA278290
BD16A6A0
BA67BC3C
3D1CFFEB
3D11819D
3D17BA67
3CA95209
BC0EE6B8
BC6225FA
3D37E804
BCD755BD
3C4E28ED
3B3417CA
39A30DB7
3CC73CD5
3D00BED7
3B1FE868
3D121AB5
BB0509C0
3CDA8DEB
3CE9E3C9
3C969C24
BD769CAA
BD295747
3C83F91E
BD77EE4E
BB72AE08
3CB968D7
BD1C8FB8
3C839EF1
3CACA9AC
3C18F1D4
BCB2E382
3B39A9DA
BAB417CA
3CC97311
BC4CFAF0
3CCD2913
3D184D34
3C18C7E3
BD837048
BD4ACC0C
BCC167A9
BC710ECB
3BCE91C9
BBEEBF66
3A75E41D
3D1017DB
3C5C22AB
3ACFE154
3BA8B08E
3CBD1676
3C6FF195
BCAE7F6F
BD020B3D
3CEBBBA5
BD3254E7
3CA786C2
3CA5CC42
3D0D60A6
3C836C9C
BCA3F035
BCFA0946
BCFFDE72
3B11E215
3D7F4342
3CFEDA66
3D68FB01
3D8C00DA
BD2D55A4
3CEABDE4
BBE5BC88
3C958538
3BA76102
BD03DAB6
3CB9CD81
3CCC1872
3CB43FA3
3C4204F3
BB8C1DB0
3BED6777
3CDC7AC0
3BFE9B7C
BBB2D906
3BA7C5AC
BD2FB2AB
3D3380CB
BCE32E38
BCEBEDFA
3D1C4977
BCE90FF9
3BA93F29
3BAE1049
BC9144CC
3BF5232D
3CAD8C2A
3CDF548F
3B30079A
BBB69553
BD11105E
BC8038A0
BC9B0AB3
BC51FE65
3B945F9E
BC1934F0
3C31E5C1
BC6C8D5C
3D4FE048
3D0B85A5
39DBAD3A
3C3C4D23
3C15703F
BCA730C6
BCAB777D
BD446F9C
3D68D435
BCBB3205
BD0EF77F
BBD0917D
3D2C764B
BC6E9DD8
39A95853
BC8563ED
BD3E20CD
BD27E1FC
3CFE6927
BD592EA5
3BB8B695
BC9DA7B1
BD994D94
3D4D9B5F
3CC2A23C
3BD06FEF
BC8DD617
BCEAD0C4
BBACAFF7
BC5AA4FD
BB1C4DA9
BD166CF4
BD68869C
3D25F634
3C05985B
3C9DC2F4
3C6A4229
BD3B2CC7
BD05692B
3CA4399B
3C0D0892
3D26937D
3D2F5771
BBCFF21B
BD086CEC
BB85B185
BC942F62
3C7383F1
3CAC14C6
BBD9F905
3D1C011D
BC6C3DAB
BD021E1D
BCB59BC3
3D10129D
3B55E8D5
BCAA8438
3C878B7A
3D0E4C94
3C1F9CE9
BD0ED6FE
3CE2BF12
3CB4F616
3D6B9C30
BD1C7475
3C10A351
398E9B39
BA59D777
BC60C176
BD121AB5
3C50D068
BC8E1B4C
BC32074F
BC2AF35E
BC9E9292
3D6FA1E4
3D188F43
BCA2B9D4
3CA3443D
BB6F5665
BC6A1837
3C9C8649
BCC6412D
3C753826
BC76DFC6
3C3A98EE
BC3FCEB8
BD25A145
BC82C2BD
3B6A28FE
BCD14E3C
BBDD0529
BA195AAF
3C995465
3D089D28
3CEFF3AE
BD013A93
3CCF4624
3D097A68
3C54E8FB
3D2A8438
3C9276FB
3D54DD72
3D038F36
BA755DE6
3CA2A0A9
3C60C176
3C4C319C
3DBCD5FA
BB7D9FD3
BD27DED7
3C8A99B7
BD356862
3CEE84AD
3D38F367
BC308DD2
BC8A0B1C
BCC7064F
3B416590
3C30EE4A
3C9A9542
BAAE1049
BBC34C1B
3D1A682B
3D010A57
BD63B03E
3D048ADF
BB8E7147
3DAAE211
B90C825A
BD54F7A9
3A0D4BAD
BBD03537
3D89FF93
394F9E38
39D349BF
3CB1C64C
3CC013EC
BD35BC45
3C2DF71F
BC45BD0E
BD368DFC
BBBD9019
3D50E886
3CC07EE1
BCAAEAFB
3D2B367A
BC980D3D
3AE0A84C
BD4E8A72
BB131013
3C4C78EA
3C2BE271
BCB53F7D
3C462A1B
3D4B3C3E
BC740E5A
BCFEAC43
3B5ED289
3BC4BD34
3CE4E486
3C8A6B94
3CDF9160
BCDE5F31
BBD16B98
BC85015C
3D270D20
379F6230
3D099D02
3B154A80
3CE64D3C
3CD74F72
BCC92BC3
3CC4B09F
3C9F969E
BC2921CD
3CAE03B4
3D117614
BC0B502B
BD284381
3D0549B6
BC1B6F5D
3CE4A383
3C17353B
3C1F3C71
3C059C8D
BCAFB5D0
BD2D783E
BC9800A8
3A3630A9
3C3D6A59
3CDF4A12
3BE32E38
3B9A5658
BC0A0903
BBA411C3
BD575C07
BD17CF5F
BC822574
BC210E02
BD386E3B
BBC6583F
3CE379B7
3D54EF46
BD4B178B
BC7CCE1C
3D273605
BCC04428
BC4ED0B3
BCA643CC
BB9EA140
BC497529
3D05B39E
BD3D7E46
BD5C1A48
3D0A0903
39B5ED8D
BCA7008A
3D0E79AB
BDA5E892
BDB54F37
38DA1A93
3B1E236C
3BE368F1
BD8A6549
BD630553
BD464239
BC8DCDB3
3C949C6F
BD206424
BD9B16C2
3BAC29BF
3A5E8F6D
3D212E84
BD28C79F
BC2F9A8D
BC1B1748
3BF57710
3C1AAE6D
3D699FA1
B991C087
BD251C19
BC5948DC
BD427B70
BC616D6E
BBF7FCFC
3C4204F3
3CB43958
3C517C5F
BD3FBDF1
BC7CC5B9
BCC6173C
BBB777D1
BADED289
3C53A1D3
3D23A190
3BE53650
3D129CBB
BB3EB5B3
3C104B3C
3D3DDA8C
3BBEF06B
BCD1E109
3C912BA1
3C4AAFBC
3C89331A
3CD71B04
BD739086
3B1E8816
BB2E429E
3CA30553
BA131013
3C69E1B1
3AD4994A
BD61E929
3CC8E68E
BD15BBBF
BC0D36B5
3D06AD2E
3BF0307F
BBF911CF
BCB8E087
BC0198F2
BD129DC7
BC84944F
3D60B4E1
3D2132B5
BC9AC797
BB28C155
3C84662C
3C9DB878
BBE46CFD
3C0BF7F0
3CD9CAE2
3C253B8E
3B996313
3D3111F1
BD3190D1
BBD9CF14
BC8AC7DA
BD359579
3B47E282
BCBA83F5
BCCC7086
3BD5E8D5
39D4DC66
BD0D8559
3D03A42F
BC9A9DA6
BBA66DBD
3C15BFF0
BCEAF252
3D2938DE
BD0BC276
BC60D66F
3D2E2867
3C64ABE7
3C533094
BCA88ACE
3D036C9C
3CF3FFAC
3C4F28C8
3CBFA4C6
38FDC161
3B0C9321
BD66C6DE
BD4690DE
BC7633CE
BC1A9DA6
BD9080B6
3C179E17
3C07485E
3B88BDA9
BCA06855
BD43C5BD
3C7BC1AD
3D10795F
3D1B5A64
3C51BB49
3D8C1B97
BC50D068
BCE7DDCA
3C1085F5
3CD8622C
3CC6B485
3D2D0D4A
3CF90FB6
3C9F0803
BD09BC77
3B721709
BCFA17F4
3B9B8CB9
BD83FE5D
BBEBCC6C
BD69C454
BAC77DD8
3D05B39E
3D426EDB
3ACE0B91
BC9AF7D3
BD2B0B7C
3DC5A709
3CA9717E
3D368F08
3CB910C3
3BA0A958
BC6C84F9
3D219115
BB36A61A
BCEA4A8C
BBA582DC
BD4111AE
BD39E9D1
BCD8255B
3D1A89B9
BC97A67A
3CC59967
3B1070FC
BD161D43
3B2F1CB9
3AF49492
3D00F883
3CBC1483
3C9FC8F3
BAAA0019
3D54812C
BC8AF3E4
BC11CD1C
3CAF72B4
3C7D9BA2
BD5B23DD
3C6C84F9
BD0B3E57
3D53D20F
3BDB50F4
3D0BA1F5
3C701323
3CAF3A15
BD160D88
BA880D80
BD155B46
3C3FDB4D
BCDABE27
3C57ADD1
3D96C82E
3C76D762
BD03E20D
3D611772
3AE90BC8
B9F7FCFC
BC47863C
3C33D8E0
BD1CC101
BC41F85D
BCF7A919
BD2D3C79
3BF57710
BC202321
3BD8BA41
3CD9945B
3D4520D1
3D21437C
BCC5D851
3D379746
BD19D452
BC5794A7
3C801712
3C3CEC85
3B854CDB
BD4D0AAA
BD905A71
BCDF1BEF
3CF5AB7E
BCC636B1
3BBE4042
3C8B6D87
3B470868
3CBB4917
3CED2674
BB84A516
3C9D0636
BB9FB613
BCCCE810
3C6DC3BD
B896FEB5
BCA602C9
3CA745BF
3BD17C5F
BC3E7AFA
3D06DF83
3C99F1AE
3CA86D72
BC118A01
BCE494D5
3C9D4B6A
BD81BE2B
BD0F2171
3D145522
BAE15012
BC2BEAD5
BCDE0B4E
BBB074A7
3C8B8F15
BC41F42C
3D15B9A6
BCE01798
3B5E7EA6
BCD90E24
3D7F2C30
3C59B5E9
3DB8FD5D
BCA4EDF6
3C8DED29
BCCF227D
BCB25919
BCEDF612
BAB8066C
3C58ADAC
BCBC31DF
BD09624A
3CCDE7EA
BCF60E0F
3CA99525
BC4100E7
BCD00B46
BC98D25F
3CEA747E
BCA2706D
3C44E725
3DC56C51
3DEF5F4E
3C272A7C
BD5C065B
3D85C24C
3D1593E6
BC7F1950
3C9E3865
BD0FC0D3
3B700EF1
BCF67B1C
BC837931
BC18CC14
BD144ED7
3DB0635A
3D4E0DAA
BBEED02D
BCC2ACB8
3D2393EE
3C25BD94
BC986552
BD1EA359
3CB3C1CE
BCCC3C19
3D158213
BCDA9004
BD40DF59
BC916873
3C9AA1D7
3C8127B3
BC8C77DE
3C88CE70
BC10D9D7
BA02491B
BC90D38D
3C96A487
BC6DA22F
3C5FB939
BCF20210
3CB84125
BBEAE18B
3D0F29D4
BCC19C17
BD10752E
3D0C5111
3CC8FFB9
3C9CC74C
BA4C78EA
3C0CA3E8
BBD3AE68
3CA2EE42
3D28F8E8
3C697072
BD02F512
BC7E1544
3CE24357
3C0AC9F3
3CF93DD9
BD6C53B1
BCAA8C9C
BCD95BBC
3B80F990
3C9E0C5B
BC8296B3
BD565F52
BB203C4B
BD0B502B
BC46AC21
3D5A6D6A
BD15B35B
3C8303C0
3C9F87F0
BCB441BC
3C1E4D5E
3C931CA8
3D244849
BCFC547A
BCE92D56
3D1B4DCF
BD143AEB
3AFC5048
BB94D50F
BC721B3B
3C05AD54
BCD84902
3D0F9A07
3D1B8AA0
3C686C66
3C46CDAF
BD2733EC
3C4CA2DB
BD02D59D
3A302928
3CBC579F
3D31044F
BD1A964F
3D0753E7
BCE2A5E8
3C887443
BCD58A76
3CACA149
3CB08FEB
3A807358
3C8C282C
BD009E56
BCDF3F96
BD1BFAD3
3C2BBCB2
BCF42FE8
B99B3073
3CDC91D1
3D14D728
BD009918
3D22CCB4
BC9B36BD
BD3F52FC
3CD206C8
3D2773E2
BB567FD4
3CAEDBB6
BB03126F
BCE6EC9E
BD55A294
BC46DE76
BC5AF4AE
BC8A5482
BD05F06F
BD742FE8
BCF43201
BC9B7176
BBA8650E
BAF190D1
3B3AA583
BBD38477
3CCA600B
BD779A6B
3BE5DE16
3CFA43FE
BCA0F6F1
3C0CA81A
3D0882F1
BC262AA2
3D2B97FF
3C4C1872
BA2137F4
3B4B6C7A
BCB5B707
3CF64F12
3C9E94AB
BC8665E0
3CCEF673
B9FDC161
BD34916D
BCF11948
BBF75537
3CD188F4
3A03126F
3C361FE2
3CE5C91D
3CBC9470
3CBCBE62
3CEAA2A1
3D5D6E05
3C8D3CFF
BCE87F45
3C51244A
3C9F81A6
3D483A97
3D90E23B
BCB70692
BD5DC0DB
BB59B5E9
3D219EB6
BC7826EE
3C83A96D
BC19DCB5
BCC1333C
BAB37004
BCC2B0EA
BCAB10BA
3D248D7E
3C322D0E
3B1B738E
BB917D6B
3D0F6F09
3C3FDF7F
3B801F75
BCDD9A0F
3D09118C
3C2BF76A
3CD3458D
BCCCB9ED
3D032CA5
BCA860DD
BD68F6CF
3BE23AF3
BD2DA22F
BB10B418
3BE7A312
3E47995F
BC978F69
BD0B5CC0
BD203C4B
3D192FB2
BC976790
3DA158FB
3D20C38F
3CEE2435
BD0447C3
BC48B86B
BDC0C283
BCB2C1F4
BD3F5947
BD23779F
3CF6E1DF
3D95A8DF
3DB3636F
39A8D21C
BCCB0186
3C1702E6
3BA7D673
3BA1DFB9
3DF421C0
3D20E1F8
3C8EF566
3D43968D
3D8369FD
3CC0BBB2
BC5FA440
BB8CCDD9
3C4EF241
BC6E6FB5
3BCD5B68
BC0A47ED
BCDEACC9
3D3A604E
BC88919F
BCF62952
3C2A4767
BB8B32CF
3CE88590
BAC88A48
3C6E73E7
3CD53693
BC81B435
3B0472C1
BD69C023
BD590082
BCCF7660
3C8D1959
3D089C1B
BC537C13
3B9BF163
BC215550
BDA9AAA4
3C8F7553
3C95B574
3CD4E8FB
B903126F
BCDDBFCF
3D236199
BC7290AC
3D50D499
3AC4BD34
BD86C97E
3DC9BBF1
BC7BF834
BD8BE7B0
3CDEBB77
BD4662BB
3BD04E62
BE093709
BDDF2991
BE5AD4B2
BD75653D
3BA161E5
3DB062D4
3BCBFB16
3CC167A9
3CCC6A3C
3D8A3401
3D1C24C4
BD34D595
3D0F9F45
395D3FE2
3DF3BC90
3D7C2A88
BE19F55A
BE112B1B
BC9C3266
3CA93D10
3D765450
BDB9C172
BE239BCC
BB3DEC5F
BD5A0F0A
BD87735C
BE322425
BD8F36F0
BCD4AC2A
3D406C01
3BFEEF5F
3CAD2136
3D1E03F7
3CF587D7
BA330B5B
3ABCBE62
3CBF9E7C
3BD03D9B
3C9AD645
BDEF6D76
3D0CFE15
3E069510
BD2D6777
BD8E83A1
BD70D413
BCEADD59
3DB8B695
BD72CD7D
BD2656AC
3DEE39B4
BDDD523B
BD0CFD09
3E0FCC5C
3D86E3B4
3D8A3162
3D2D7625
3C8C9321
BC8EEAEA
3B585597
3C01E8A3
3CA84168
3D347E8D
3D087FCC
3D967FD4
3DC808C8
3DC64F55
3D38AF3E
BD981627
3BE9142B
B9F2BECF
3CF1AC15
BE463886
BE34B513
3BA0A958
BCE16723
3BB7457C
BE398634
BE167621
BD71348B
3BB6848C
3D6E2004
BD0C48AE
BD2261BF
3D5464DC
BC30DD83
3D4A1273
3D2E019B
BD5B39E2
BD0AEC8D
3CCF91A3
3CD53AC5
BD8EAB7A
BDC5E1C1
BD64A6A8
BCB1AD21
3D129DC7
BDCEE30D
3C0C08B7
3B99F1AE
BD3C9DE0
BD7E8039
BD61F5BE
3D6C929B
3CD9D346
3CB84DBA
3C200193
BD249907
BC075925
3C1F6EC6
BCEAA8EB
BD27A312
3A9613D3
BD9BBF94
BD20BC38
3B27D673
3C9A9B8D
BCC588A0
BD8599ED
BC482E02
3D150332
3D0CA2DB
BD904E62
BD60E1F8
BD2544FE
3DB0F16F
BD92F87B
BD7A732E
BD94DE7F
BCFF1737
BBCCAB3F
BC0DB8BB
BD6FFC11
BC3FCEB8
BD4F0C78
BD76F8F0
BD831401
BD05B8DC
BCF95704
BBFEEF5F
BD49ADC9
BCAA2E3C
3D895E9E
3D4013EC
BD7F93FF
BDC9856A
BD9E98DD
3D81CB47
3CC5AE60
BDBF090F
BDACB6C8
BE2422CD
BE44AD36
BDE82E02
BE0A93F3
3CBE89A9
BC9799E5
3D111277
BD030A0B
BD1EB207
3D37835A
3C86A6E3
3D1A8588
BC42B51C
3BEAC860
3C01D7DC
3C159E62
3C8FC936
3CAFD977
BD1C66D3
BAF8A4C2
B8BAA583
3D437931
3CD15F03
3D0431BE
BB87EBF2
3C235936
BC51FE65
3C1DADFB
3D241B33
3C7327AA
BC1A88AD
3DA3EB7D
3D14AA11
3C8728E9
BD08A7A4
BCDEBFA9
BD0027D9
BD977EA2
BCB5FE54
BCAA9D62
3CC30F49
3DD2B7FE
3ACD423E
3C4219EB
3CDDC832
3DF2F662
3E1FD9FD
BCE848BF
BC4A6CA0
3E303A75
3D87B80B
3DA660A2
BD88344C
3C5A1EC5
BD01F538
B9B912DC
3C963BAC
3BEA39C5
3D39E7B8
3C3456B4
BC992429
3C9AE925
3C4E6C09
3B9CBAB6
BCF8FABE
3C1D12CB
3D2C0831
BCDFA872
BCF123C4
3CBD2524
3AA2A90D
BA7F9724
BD5EFD87
BC08765C
BBEB3DD1
3D4ABD5E
BC540EE0
3D039ABF
BD855B8A
3CC23316
3C9CB253
3B940BBB
3CF5EA68
BBF63800
3CB2F87B
BD0E9C45
3CD4C554
3AEE2867
BD4ABE6A
BD0E1D65
BD431487
3D0A5376
BC928BF4
3B0ECD8E
BBFD86A9
BC8E7579
BD34A772
3C2148BB
3D8E19B9
3B147065
BD47B56C
BDD0FF11
3DB6A401
3D9F034B
BD03D89D
BB23D70A
BD154EB1
BC8A936C
3CF0ED3E
BC67E62E
BC167CAF
BC8FECDD
BC97FC76
BCE6AFCD
BD7B0B39
3B85A0BE
BD9207D5
3AD434A0
BB2ADA34
3D1A47AA
BD6DBE7F
BD541744
3D3AF859
BBBB3C82
BD0D2E51
BD8831AD
BD1E492C
BDBAFEA4
BCE2B064
3B7DD228
BC4D4ED3
BCC10B63
BD68DA7F
BD225A68
BCCF8940
3CB85E81
3C55CFAB
BD666128
BC67C4A0
BD1B1423
BC2BC0E4
3D0945FA
BAD64D7F
3CCB8173
BA5F15A5
3CB81733
3C5C2F40
3D8D39DA
3DA7DA1F
3CD0DCFD
BD8771C9
BDB0AE53
3D35E204
B866AFCD
BDC23316
BC6B80ED
BD92DDBE
3C22834D
BD0FF972
BD09BA5E
3AEA7CE1
BD26C5D2
BD04D877
3B903644
3CAD3A60
3CB7867F
BB5F47FA
3B449BA6
3DAA1944
3D60828C
3D4AF923
3E4C9F73
3DAD887F
3D9CDF6A
3D3DB5D9
3D7BE22E
3DCA73F7
3D289763
3DB285A9
BBFB43D9
BD5BB9D0
BDDBE7F3
BDC9C23B
BD946994
3BE54717
BC3BF940
BD221FB0
BD9F2F55
BD96FEB5
BCEB8950
BC29435B
3CD27C39
BDB712A1
BDBF1E8E
3CB99D45
3C95D91B
3D6559F7
BC53A1D3
BDA7B56C
BC7D71B0
BE3D2E0E
BE3DF698
BE6E275B
BE0A2CED
3C595DD5
BD9A9FBE
BC4FCC5C
3CC5CDD5
BD2F1887
3CE9270B
BD2F06B3
BCBB6AA5
BC34E54F
BB7E36D2
3CA708EE
BD45EE57
BDC162F1
BC594D0E
BD049236
3C219008
BD8521DE
BD8C0E7C
BDA95183
3C099BF6
BC2D3E92
3D8A1405
BE115981
BE44E161
BE2520D1
3D471716
BC94FACE
3D21AE71
3D54C33B
3CBB7B6C
BD40F990
BD0BAF96
3CE97072
BCE38434
BD0791C5
BC676C8B
3A9F83BE
3D94B0E2
3D19018E
BD3A5094
BA83126F
BD8FE692
BCE2456F
BC91EEAA
3C6E568A
BC9DF762
BD818698
BDB830E4
BDF1BC56
3C503D9B
BAAC5C14
BCB29A1C
BD94F69D
3D029175
3C3035BD
3D01871E
3D3077CD
3BA18373
3C50917D
3C0DD617
BCD4562E
BD8C4CE0
BD31FEEB
BCB58299
BBF04146
3DF28F9F
3D6EEB70
BDBE4C51
BE1162AE
BD25FD8B
3DDBF0DC
3DF5AC04
BCE3497B
BE0415F4
BD61144D
BD7111F1
BC64D5D8
3DA2ABAC
3DC44956
3DD1CB04
3D495F24
3BCBEA4F
3C975AFB
3DFACC4F
3D6B81F9
BD959E62
BDE6EA85
3DB1CE29
3D53DB7F
3D01A7A0
BD3BCF4F
BDCC679D
3D8DAC26
BCACF95D
3C01E471
3E06583F
3E52413E
3E3BF1E9
3D9BA4D7
BC8EE6B8
3CA47022
BD811E43
BD3267C7
BCF542A2
3D2CB967
BC92E1EF
BD937C9A
3C1F383F
BC54738A
BD0DEF41
3CFD2418
BD919A41
3C3280F1
3C212B5E
BC829F17
BD5FC19C
BC41B542
3C720210
3D29F490
3D1EBD90
BD6544FE
3D3E5FB7
3E14D940
3DDFAEBC
3CA9D1F6
3CAB25B3
3BC7EAE6
BC797247
BC9F83BE
BAB912DC
3D1CA7D6
BB24C1EC
3A36F9FD
3CE0589B
BD6862F6
3C39E8C4
BC87C201
BD2188B1
3D5E3327
BBFB86F4
3B20E411
BD0348F5
BC31CC96
3C45974E
3D94B8BF
BCAE8188
3D53E5FB
3DC7AB75
3D55E28B
3D0DC65C
3D51EC92
3D9946C3
3D0F7660
3D87E176
BD42A130
BD25E248
BCD7FD82
BDC42396
3D7FEF39
3D68D64D
BDB73D9F
BD52630F
BD13A92A
3C9E55C1
BA5130E0
BD6ABBCB
3B412275
3D8D6D3B
3D3DCF03
3D8D9BE5
3E18FEAC
3E3D4888
3E847629
3E754046
3DD06A2B
3CEE4C0E
3CB4F1E5
3CC93EA3
BBC43F60
3D54983D
3CBEEE52
BD226F61
BD0F55DE
BCAE6C8F
BC0B60F2
3D0E28ED
3CA6E547
BC6E73E7
3B5C8755
3CC0C415
BD51F601
3CEEB2D1
3D3FB481
3D8795F6
3D2AAD1D
BD99146E
3C6F77F2
3D851A00
3DB348B2
3D202FB6
BC90D38D
3CE38C97
3D172BCB
3D1A3A08
BA3B6ED6
3B8E3EF3
BC0094E6
BC1E518F
BBA9AC36
BBD4A1AD
BC5DD6E0
BD0111AE
BC9ED7C7
BCAE83A1
3BDADB83
BD812407
BD0389F8
3CF0C997
3CC8B220
3CA6FE72
BDD4BA52
BD429BF1
3C2A087D
3D7E5860
3DB544BB
3B13D966
3CD5FFE7
3CBCEE9E
3C8C9B84
BD8FD439
BDF20E1F
BC14F26B
3B22DB62
BD0CB07D
BD8EED03
BE05D24A
BDA04535
3D2CA8A0
3D4FF972
BC505F29
BDD00608
BE7F00EF
BD8B7E4E
3B92BC30
BD3ECCC4
3D9E2047
BDCAAB04
BE5E6299
BD72B55F
BCB24207
BD294EE4
3D7F4FD7
3CD3D428
3CBA4724
3B8FB00C
BC2AB042
3D8ACA79
3DC7BC3C
BC4E464A
BDC4302B
BD138690
BBD4ED2D
3DBEF73C
BCC840E1
BD9A2596
3CC53D21
BC0BE2F8
BE19FC2B
BE2AD320
BE7D6239
BB35AA71
BD7AAEF3
BE1FE2E7
BE6E364C
BE95CF25
BCE618CE
BD84F97F
3BB790FB
3C830E3D
3BEAB799
BD037A3E
3C13EA2D
BC2AE297
BB8B007A
3DA160D9
BC934ACB
3D4012E0
3D1119CE
3AC8EEF2
3C0626F6
BC826AA9
BCC2D491
3DD463D0
3CF6B1A3
BBC80C74
BB449BA6
BD5EF30A
BD0CB6C8
BB9680E0
3B180B24
BCE53006
BC6670E3
BD7EF49D
3C559D56
3D1D6F11
BCE1E4F7
3AF6CEFF
BC887A8D
BCC3FE5D
3C0CC9A7
3BC33B54
3C6A0BA2
BD049DBF
BBCAEEA6
3C98B503
BD230EC3
BBA1943A
3C0333FD
BA3DCAD1
BCE8448D
BD9681ED
BDE42B73
BD0151A4
BDBCBFF4
3CBAD7D8
BD1A8EF7
BC077EE5
3BA6F3F5
BCEBFEC1
BBEF4E01
BC21B5C8
BC13964A
3D7B2464
BC1949E9
3D2C7326
3C897E99
3CCE831B
BB435CE2
3C4EB357
3C1CD3E1
BBBE9425
3CDB50F4
BCE9F6A9
3BF648C7
BD0BE404
3C1491F3
3CF26D05
BD3546D4
3C8A32F4
BA8ACE25
BD7C43B3
3D0055FC
3C9C2A02
3C674AFD
3D18B3F6
3C8C5868
3D80303C
3E3235B5
3D8E703B
3DAC2374
3D866BA5
3DE9ADC9
3E0707E1
3D31593E
3D0C996B
BDA284E0
BCEE6751
3E6126A6
3D00980B
BBF355CE
3C976DDB
3DA2552A
3DDE79EE
BC955715
3D0C0379
BD76390D
BCAAE4B0
3CD53693
3C340703
3CBEEA21
BCE6FB4C
3CDD82FD
3C6E7818
BA17C808
3BC1B973
BC4E032E
BD2F78FF
3B7F865D
3C6A8DA8
BCA8C9B8
BD57353B
BD555A3A
3CBA6EFC
3C119264
3B2FB3B7
3C89C800
B969D51B
3D8F2496
3D950F41
3D01E9AF
BC0E4756
3D375B81
BD155821
BD05EA25
BBC0E7BC
BD0BA94C
3CDE353F
BD7572DE
BD010518
3C2A68F5
3C841030
3D2B441C
BC337436
3CE83C29
BD557EED
3B32B778
BD202B84
BC0919F0
3C67210C
3CC78A6E
BCACDC01
BDD9BDC7
BE133333
BD6D1BF8
BD3D33D3
BCE20CD0
3BBAF102
3C4D141A
39B56755
BBD82342
BBD959A3
B8F776C5
BC892EE8
3D3544BB
3D0B8CFC
BD368BE3
BD570718
BBEDA22F
BCF56A7B
BCB81F97
BD38DB49
BC6DE97D
3C251A00
BCF86A0A
3C4FBB95
3C86FCDF
BCB293D1
BD3D20F3
3D5460AA
BD27C5AC
3CF6A50D
3DC8BEB6
3DA72431
3A1F6230
BD3074A7
3DBDEEFE
3CD199BB
3E05D031
3D221533
BDAF954F
3D4385C6
3CBE33AD
3D963CB8
3B8051CA
3C663A5C
BD696D4C
BD9C4C16
BE0ED784
BD9C9D5A
3B449BA6
3CC0CC79
3CB75A75
BE643B71
BDFDFA01
BDDC7821
BBCD6C2F
BAC9D9D3
3C1A0F0A
3DB06A2B
3DEB09EA
3DB95B36
3CCF8D71
39745176
BC368CEF
3B8B2208
BC1A176E
3CBF5B60
3D25119D
BDAFD4BF
BE1691A7
3CC73259
BDAB252D
BDC47E4A
3D9B5958
3DA0242D
BDA9741D
BE5527E5
BE463C75
BCB2B55F
BB0A697B
BADAE3E7
BD153261
BD005C46
3CDFD04A
3D190F30
BC31AF3A
3D73E78E
BBA6E32E
3D9F1F9B
BB806AF4
BCF6CCE6
BD2E72DA
BD6146A2
3AF301EB
BCB53F7D
BC11BC56
BD92E2FC
BD20B5EE
BD32B778
3D2B313C
BD7A3444
BBDC8FB8
3C58B60F
3DB19BD4
3CE837F8
3C1641F6
BC81D5C3
BCA960B7
BCEB0B7C
BD18FF76
3CE28ED6
BCFAF20F
BCB61FE2
3C8CB6C8
3C0B588E
BD00229A
BDE0BFE4
BD10D280
3CCA9AC3
3A267621
3C82B40F
BD24E7AB
BD05D639
3C2A10E0
BDB3508F
3DD0BF1A
3E1B1423
BA09E343
BD987486
BD32EAD9
BCA070B9
3D2AB580
3DD209EE
3DC6B93D
3CFC0B13
3C21DB87
3D351EFB
BD4AC8E7
BD53C89F
BD711F92
BD7F25E5
BD4E6D16
BCC71F79
B9D1B717
3D078B7A
3C449BA6
BD72FCAD
3D50E347
3DBFD47C
3DC12D77
BD35EA68
BDD5BAB2
BE2ADBC6
3C4829D0
BC8A350D
BC535654
3BD41312
3CE8C47A
3D6F8F04
BD38F473
BD05F288
B988D6D4
3C2CF313
BCA7AA69
3C494706
3CAB1B37
3C1EE45C
BC8116EC
BC2F965B
BCF1715C
BDAD1D8A
BCD8C8EF
BDCE6299
BD5F5382
BDE86488
3D3FCB92
3D824357
BDE6FE72
BDDD5800
BE288766
BD01ACDE
3C978D50
3B8E2E2C
3D9708AB
3CA5614E
3BF2BECF
3C7FF79D
3D31A8EF
BD0FABDA
3AA808C8
BB8D759F
3D1CA8E3
3D217C1C
BD90BE0E
BD572DE4
BCFE08AF
3D196E9C
3D24BCAE
BC6889C2
3D861523
BD1C53F4
3D94E011
BB8EDE55
BCB27675
3BF2495E
3D574F72
3D0841EE
BD70BAE9
3D9F1AE3
3D2C1D2A
3D091F2E
BC4D63CC
BCB7457C
3D000325
3D9D249E
BD8DACAC
BD8F5126
BC9B089A
3D86DEFC
3DC86595
3A5E0935
BD1E1B09
BE06CA47
BE375793
BE2B9DC3
3DC91F2E
39A5ACCD
BE2ADDDF
BE49B414
BBE24357
3C81F106
BCE7429A
3C082ADC
3B14D50F
BB700EF1
BD1B2703
3C836EB5
BD50880E
3C8CCFF2
3C3499D0
3D0D37C1
3CF542A2
BD129995
3C8FEEF6
3C329E4D
BD21FE22
BC8A3B58
3CB3D07D
BCBFDD66
BD0332F0
BCCF0308
BD3D7E46
3B6B9A17
3D065C70
BD40F55E
BD1E2BD0
BD3B0E5E
3D3A3CA7
3D8E989A
3C3DDB98
BDB24F22
BE03D189
BDEAC083
3D3BDBE4
BDC8CDEA
3B7C9364
BE0579AF
BD0EE7C5
BE1517E7
BCBD102C
3D036A83
3E0E1199
BDBB5D89
BDECBFB1
3D74D8BA
3DD318FC
3E08C975
3DEB430F
3DEA5EFF
3DA3EAF7
BCE73A36
3D205AB4
3C2A53FC
BCD4994A
3A595140
3D43D578
BC8E23AF
3BAA4B99
BBF64064
BC849A99
3C3EB9E5
3D21E604
BCC22036
3BA7A41E
BC87BFE8
3CDC4007
3D92B4D9
3D20791C
3C9F85D7
BCC05F6C
3C1EBE9D
BC2EA316
BC9B23DD
3BEB0B7C
BD727243
BC78E7DE
BCAD2136
3C8EEF1C
3B90B418
BCDC91D1
BC760E0F
BD40EE07
BCCD594F
3C1A06A7
3C6CCC47
BCBA493D
BD3C6973
BD09B520
3CBC70CA
3B31465F
3BB228DD
BCA176DE
BD0BDCAD
BCD3BD16
3CC052D6
BD9414A5
3C95B35B
3DA3C85C
3D60CF18
3C8752DB
3AD02470
BCE45804
3CC5BAF5
3C12D98C
3D221B7E
BD486F05
BD17ADD1
3B990F30
BC6C7000
BCD57DE1
3BF0520D
BD265493
BC4970F8
3D51372A
BD26EB92
3C87CE96
3D23779F
3D962CFE
3B10B418
3C18EDA2
BD1E43EE
BC319E73
3D0DF480
3D5CB89D
3CE4BEC6
B9FD3B2A
BDA1F4B2
BD60114D
BB9D7343
3D07AF21
BC18676A
BC397354
BA2350D3
3DA83C29
3D58676A
3B6DC3BD
3BC89B0F
3D31C971
3D733659
3C0B2208
3B99E0E7
3CF850DF
3DBD2D02
BB46F7A1
3CC03FF7
BD94E8FB
BD6C5E2D
BD429E0A
BD64F97F
3C99C38B
3B5F15A5
BD3AB325
BE013E3E
BBA83B1D
3D776A2F
BCC1C821
BD19F3C7
3C058BC6
3900F990
3D2D8E43
BD648302
BD5D95DD
3DB22318
3D10342B
BD9FDE72
3D521251
3BD60A63
3E0B8AA0
BC80218E
BD299E95
3DE2107B
3DEDBE7F
3DD99781
3DC024B3
3D13B4B3
BDDE1C15
BCF59AB7
3C93B9F1
BC986552
BD29845E
BB0ADEEC
3D1A2E7F
BC90B84A
BC5C725C
3C875F70
BD2CFE9B
3D16909B
3C396AF0
BBE3FFEF
BD5D40EE
3C530F06
3D040BFE
BCDEBB77
BCD106EE
3CA15981
BC35D895
3B18D478
3DF4A98B
3C5477BC
3B70E90C
3BFF21B4
BB71C326
BCB8561D
3C0051CA
3D343FA3
3CC36977
3D355BCD
3C14AF4F
3C814941
3B5DA48B
BBB3B320
BCE2DC6E
BC97B741
BBDE7642
3C6BF65E
BC4486AD
3D05E918
3CA2F8BE
BC84B1AB
3C911F0C
3C40F451
BCED58C9
3BCEF673
3C2CC4F0
BAB49E02
BC48ABD6
3D5477BC
3D0C692F
3C8B32CF
3CE440F2
3C499286
BD682F94
BB5099E1
3CACD185
BC00FDC1
3AF7121B
BD2CFC83
3BC679CC
3CC7E49B
3C07F887
3D2D02CD
3CD33F42
3CACA793
3A36B6E1
BC562BF1
BD821427
3D0B5FE5
BD4C100E
BC0B2E9D
3C86DD6A
BCFF4773
BC55885D
3D481909
3C59C6B0
BD38C75C
BD1FFE6D
3CEB074A
BD88850A
BC97F1FA
3CAA38B9
3D4CA601
3D7E8251
BCE97AEE
BBCA57A8
3C19567E
BD36B8FA
3CEFB8F5
3D6A1837
3D0B2B77
BD96BB13
BCF774AC
3CBFFEF4
3CB66517
3DE48E8A
3D0303C0
BD143D04
3D229F9D
3D704AB6
3C67253E
3CB72820
3D4B2639
BCF49279
3CE6A769
3C26937D
BBA79BBB
3C2C215C
3D1CA4B1
3D16A594
BCF27350
BCF1715C
3CD338F8
3D74202E
3D630A91
BCA9A3D3
BC415098
BD05A709
BD377F28
3DBF609E
3C0B3700
3B56C2F0
3CAFDB90
BD4A47ED
BCB09A67
BD395810
3D628CBD
3C8E29FA
BBA0DBAD
3C32C40D
3CD76684
B966AFCD
3CA3D2D8
BB32745C
3CD29DC7
3D61F18D
BD28DA7F
3CB00581
BD057F30
3D86783A
3C5D7A9A
3D1F4E44
3D1EE88E
3D3D5348
3B574928
3D7F1737
BCAD7519
3A9289DB
3C0B75EA
3D1F30E8
BD1C0FCB
BB6DD484
3CADA33C
3CCA7F80
BBA087CA
3D853112
BB1784EC
BD441AAC
BCA31401
BBC404A7
BBC49342
3D1FB2EE
3CCD5736
3D554C98
3CE6277C
3C1DE8B4
BC9B0EE5
3D46C227
3D210BE9
BBE0E304
BD29CED1
BD9D6ADF
3D3B762E
BD1BF26F
3D0EF998
3D3B43D9
3D8E5040
3CCF6380
3D53825E
BAD10F52
BC2D70E7
3CF36EF8
3C810A57
BB2D57BC
3CA10BE9
3C750A03
3CA91538
BD0EBAAE
BC07A8D6
BC5C11E4
BD76F9FD
3C6DB728
3B4564F9
BC0F648C
BD54445B
BC87BFE8
BD01A7A0
BCE04C06
3CB22F27
38D1B717
3CE64D3C
BC005A2D
3D005F6C
BD1DC619
3CC87981
BB8155D6
3CA2F6A5
BBB81733
BD87FA1A
BB47C0F4
BD2209AB
3BE24357
BD18A223
BC03CAFB
BD375FB3
3D145F9E
3B4CFF22
3D47B45F
BD531444
BD20FA16
BC113E81
3CF0025C
3CEE9BBF
3D2F8488
BBED783E
3C82D59D
BC87A073
3D313598
3D1D65A1
BBDEE350
BB0BA83F
3CDAAB47
3BCACD18
BB3545C8
BB3E2F7B
3CDC6E2B
BBF826EE
3D0ABA38
3C9AE0C1
3CA79789
3C01669D
3D29DC72
3D06594B
3D271151
BA8765BA
BC8FE261
BC6BE597
BAA808C8
3C3CB1CD
BD647560
3C2B68CF
BCE6C4C6
BB849CB2
3BFE9318
BC9B5E96
BC12AF9B
BC291969
BD4A86D7
BD2555C5
3D30867B
BDA1B003
BD58CC14
BC8ED3D8
3D1872F3
3D11AEB4
BCD2FE3F
BD24B33E
3D42E33F
3CAF8594
3CDB35B1
BC73061C
3D4A32F4
3CBF76A3
BC94898F
3992CCF7
3B4319C6
BCA8B4C0
BC06338B
BC0A7A42
3C51D042
3C67C06E
BB970718
BD1682F9
BD847BAB
3B77CAA7
3C770DE9
BCF27350
3D46B8B7
BD007571
3D7A908A
3CA7BB30
3BF56649
BD3E75BC
3D3E2C56
BB85985B
BD163FDD
BD2BFDB5
3C7826EE
BD07B246
3CD36934
3C42B0EA
BCF27350
BCFFE8EE
39C8472C
3AFFB8B2
BBD5E072
3C29691A
BBBCF91A
BC369121
BD7CEB79
3CDEFE93
BCEC28B3
BBF1B25F
3CB58AFC
3C82E01A
BCCDA09D
3C9333B9
3CCD2F5E
3C61E2DF
BC84C272
3D468987
BC8383AE
3BE2C98E
3C5F15A5
3CF25E57
3CD67558
3C8B34E7
BC9A133C
3C19F5E0
3BCBB7FA
3C4A3A4B
3C0F8A4C
3D4C111B
3C6789E7
BCA53544
BD1B38D6
3C4DEE35
BCB1AB08
BD2018A4
3D4155D6
BC1A0F0A
BD80724B
BD4D92FB
BCA5E354
BCD8F92B
3CDEC1C2
BC1F6EC6
BC53415B
3CA599ED
BD237586
BCB46DC6
B8B24207
3C07B99D
3CD60200
BCF54B06
3D0532A5
BD49081C
3C244849
BC8FCF81
BBAD46F6
3CE5FFA4
3C0B71B9
3D668901
3D455326
BC87B13A
BCA5BD94
BD1070FC
3CE0242D
3AA9BCFD
3CFE5EAB
B961719F
3A06BDF5
BD1F06F7
BD3D3D43
3C3035BD
BD18E864
BCB68273
3C9C7DE5
3C5523B3
BBA925FF
BDA5BC88
BC6EAA6D
BD1EB95E
BB2A758A
3CB5B2D5
BA3AE89F
3BD2AA5C
BBC07AAF
BCBD4AE4
BB4996B7
3C726289
BC9CD1C8
3D8A2E3C
3C540AAF
BCB549F9
BBDCC20D
3CB721D5
3CAF1455
BD12DBA5
BC9B994E
3C10ABB4
3A61F7D7
3A573861
BC6B9E49
BC013016
3A9D0636
3D36CDF2
3D19EE89
3C71886E
BD1E80BF
3C547BEE
3CAAA3AD
3D18B60F
3BDBE7F3
3D3398E9
BD4B75EA
BD8786C2
BD29856A
BCA059A7
3BBC8C0D
3CEBD09E
3D26F827
BCB0EE4A
3CF73C0C
3AAA21A7
BBA73F75
3C841CC5
3C94E5D6
3CFEFE0D
3C40AD04
3C48711D
BBA10E02
3CADE658
BC02235B
3CF0D62C
BD033B54
BD616E7A
3C48EEF2
3CB6FC16
BD149F95
BB8CF7CB
BD1E481F
3CE2BCF9
BB096DD2
3D553AC5
3CE80171
3C860FE4
BC896356
3BAC53B1
BCFE175D
3CF42785
3BDAD320
BADAA0CB
BC9D7FD8
3CD31983
3D2EE30D
3D967CAF
3C0B545C
3CD2C5A0
3CBA1F4B
BC1B951C
3C180B24
3D003FF7
BC7850DF
3C7B1184
BC640853
3CCA42AF
BB866A12
BC8E171A
BDC596C8
BCD3BD16
3D10C5EB
BC1817B9
BBA9F7B6
3C1C779A
3D5247CB
BD0B46BB
3C0DB489
3D41F645
3CD94F27
3BD905C0
3B2D8A11
BC90C4DF
3D2D8B1E
3DABBF51
3B834D27
3C3D3804
3D03F706
BCBC5BD1
3D0FD3B3
3B1D16FD
BCFB02D6
BCA1DDA0
BAAEFB2B
3CDE15CA
BC351373
3C0A6549
3B804103
BC8728E9
3C6C13BA
BB14A2BA
BCE5668C
BCD92104
3C264C30
BCC3C7D6
BCF57D5B
BD06A1A5
3B097E99
BC2DE658
3A4282C7
3C470C99
BD934938
BB9014B6
BDB400B9
BB8461FA
BCEB1A2A
3BF0520D
BC485C25
BCE175D1
BB5F9BDC
BB361FE2
3C5E00D2
3DA030C2
3A76F08D
BCD03105
BCE22E5E
BBE2C98E
BC73CF70
3D895BFF
3C9B0681
3CF1971C
BAF25A25
BC8257C9
BD419D24
BD33A472
BC512CAE
3AADCD2D
BD590D17
3CF6B1A3
BD16CB53
3D584E40
3BC37E6F
3CFF66E8
BD73C70D
BC52E947
3B0C825A
BCA5BFAD
3B095D0B
BC812BE5
3CA13A0C
BCD3E0BD
3D18E326
BCEEAE9F
BCD097C8
BC45C9A3
3AF96E16
3C5B7AE5
3C4ACD18
3CA3358F
BCEDCE3A
3C780991
3C3F7F06
3C8A5269
3CBBFF8B
BB345AE6
BC73DC05
3C908C3F
3AA37260
3CE11340
BCD83409
BC99B4DD
3CEAB580
3BEDE54B
3907442C
3D546F58
3C2E07E6
BD134EFD
3D2E3822
BC9A6B51
3D011F4F
3D2832BA
3D12F3C3
3C6BC409
BD8DDCE8
BD3B5AEA
BCA00193
BCBD145E
BD0B8F15
BC27546D
3C3777D1
3DA41C3F
3AF45176
3C854046
3CCC0160
3D4A17B1
3C502CD4
BD9E4CD7
BC1A415F
3CEE3F79
BCBEAB36
BBA88F00
BD88626F
BB86BDF5
3CED527E
3D0FF21B
3CF53C58
3CBC297C
BCF26070
3B22120E
BCC9C0A9
3D0FA69C
3CF9D6F1
3D3F811F
BAABD5DC
3CF2085B
BD3DAD75
3CBBE660
BC71800A
BC913405
3D1959A3
3D23AB00
BD531FCD
BC47DA1F
39E0EB68
3CF12E41
3CA9EF52
BD13D534
BC445027
BBE59AFA
3D35B3E1
BBCBE1EB
BCE8B3B3
BD81F4B2
B99DCF89
3C83A323
BC9203A3
BD701D9F
BD07991C
3C8A5050
3D51EA79
B9734507
BCB8194C
3CB4D489
3C70D845
3C66A338
BC918E32
3C8A86D7
3D1199BB
3C64F766
3CB213E4
3D1DFCA0
BBDFCE31
3C330F8C
BC210E02
BD8A7CE1
BD23ED0F
3C82D7B6
BD13A2E0
BAB588E3
BCE94CCB
3C4C63F1
BAE3AC0C
3D90752E
BD1272C9
3CDDF86E
3C8DB057
BCBB7308
BD07DC38
BCDB0DD8
BD846F15
3CDF0B28
3CFBCC29
3BCFC82A
BD755EF2
3B7E36D2
BBEAC860
3CC82385
3C4AC4B5
BD1DCA4B
BD2603D5
BD14AA11
3CD59924
BBC447C3
3A96DD27
BCE1CBCD
3CCDD50B
BCDDE376
3C94AD36
BCE31B58
3D165B21
BCA9A805
BC44C597
3C805A2D
3B5A5DAF
3C5FACA3
3D1F6FD2
3D46BCE8
BBE9E5E2
3C109F1F
3B8DD1E5
3C8301A8
3C0244E9
BD54F377
BD45974E
BC788B97
3C8D79D1
BC48B008
BD89142B
BDA7F90E
3C2250F8
BD94DC66
BB754D1F
BD399B2C
BAC79F66
3CD94079
3B49EA9A
BCDCA6CA
BC2D4F59
BCE935B9
3C8FB00C
3D033D6C
BC66FF7E
BB397785
3D1FD36F
3C525248
3D3FD60F
BC9ABB02
BD92452C
BB54FDF4
BBE27E0F
BC280496
BC6ED890
BD5D8A55
3CB3C1CE
3D04AD79
BC937F39
3C94141F
BC2A1512
BC650C5F
BBEA52F0
BCBAB218
3D049774
BC408B76
BC956191
3D15A4AD
BD25B424
BD2A8651
BC23400C
BC06338B
3827C5AC
BCD89EFE
BA71B25F
3C83A10A
3CCE7AB7
3AB13598
BCD9E1F4
3CBF8DB5
3AB912DC
3A88D6D4
3C5DEBD9
3C77403E
BCF8572A
3C1B413A
3D36AE7D
3C277A2D
3B8ECD8E
BC8C996B
BCDD6170
BB299B6F
BD60C6B5
3C0A71DE
3BCE24BC
3B9CBAB6
39712C28
3D3293D1
3C0B6955
BC8EA183
3CB0D0EE
BB81FD9C
3A4B295F
BCF5989E
BC7A871A
3C5C93EA
3CFD9FD3
3B826245
BCF034B1
BD84B988
3D2DA661
BD2BFFCE
3D57353B
BC95054B
3C34BB5E
3CD73216
BB39884C
BCE16F87
BD71A4BE
BAF9B131
3CE030C2
3D2A9931
3B774470
3D0E5711
BB28B08E
3D094B38
BD01A262
BD15AC04
BB0D6D3B
BCF06B38
BCDF7836
BC02773E
BABD449A
3C67A744
BCF5F6FD
BCD273D6
3C98C198
3C946A1A
3C7CE747
3C78487C
3BC4DEC2
3C2F20EA
BD1F1BEF
BCAE05CD
3C243FE6
3C800219
3A23D70A
BC864452
BB5FBD6A
BCE410B6
BC92BC30
BC8FFFBD
3D0A276B
BCEB7671
BCED00B4
3C4FDD23
BCF03AFB
3CBA7FC3
BCDB63D4
3BCA4F44
3C9A5658
3C0B7A1C
39388CA4
BC04901D
3BB86B16
BCACDE1A
3D14195D
3B83EC89
BA23D70A
3C898D47
BCCBC05D
BC3EE808
BCC180D4
BACD8559
3D09DBEC
BD848F11
BC1070FC
3C01F106
3D48B546
3D1BA0A5
BB458687
3D37EA1C
BB6075F7
3CD9CCFB
3B217B0F
3D1BE2B5
B951B717
3CAD080B
BD76FE2E
BD1D2392
BD143BF7
BCBDA72A
BC184A0E
BC4A18BD
BC18E970
BD13A1D3
3CB0CCBC
BD188F43
3BABEF07
BD8CF95D
BD188E37
3B8ADEEC
BD2312F5
BD49BA5E
3C30D520
BC23B9AE
3C83382E
BC6A1405
3CB1E18F
3C66106B
3CC0AAEB
3CD9F905
3CDCAF2D
3CB74FF8
3D917B53
3D79ECF6
3D00E7BC
3D6F71A8
3DC18BD6
BC8A936C
3CD87F88
39B1BBCF
BD993F6C
BC483A97
3B84A516
3D2D9275
BC1EA9A4
3DCCC2D7
BD156191
3BFB2AAE
3D17DF1A
3AF301EB
3C79A49C
BD1CEBFF
BD2C96CC
3CA69BE1
3D143287
BCA4851B
BBD66F0D
3BD117B5
BD31465F
BC95097D
BC62584F
3DA73DE2
3CA6C5D2
3CB19A41
3C60BD45
3D121683
BB29CDC4
3A273F75
BD041CC5
3D3C6EB1
BD45729B
3C10D5A6
BD22717A
3B098F60
3C2ADE65
3B866A12
BCB76F6D
3A41FC8F
3C2BDA0E
3D32031D
3D12146A
BD02B94E
3C833C60
3D16EDEE
3D38CC9A
BB95208E
3C64EAD1
BC72A5A4
B9B1BBCF
3C63B03E
BD0CF180
BCFB480A
3C7B480A
BC56CB53
BCE1B4BB
BD1F47FA
BD4CF5B2
3CB4202E
BD0F312B
BCF2799A
BD134699
BCDF17BE
3D2EDBB6
BC51AEB4
BD0D972D
BCC0D0AB
3B4AA327
BC68B3B3
3CA7418D
BD3C200C
BD1BB6AA
3C886DF8
3CF7B396
BC2C9F30
BD7BF940
3D08051D
BC24B988
3CC1A262
BB997C3D
3D187D70
BD387486
BC2B862B
BD410D7C
BD2A1837
BBD4A1AD
BC37A1C2
3D8976BC
3D2FA82F
3CC4AE86
3C1FBA45
BCD71F36
BCEBEDFA
3CB925BB
BC907315
BC066A12
BD27E308
3C6DF1E1
3D88E369
3D4068DC
3B812381
3A0A265F
BC861848
BC53BF2F
BCA48733
3D10C2C6
3D3DA61E
3C54A1AD
3CAC4B4D
3C37D849
BBD02CD4
3CB65CB3
BCD640EA
BD014C66
3CC1743F
BD7B70EF
3CB96F22
3C8472C1
3BB7CBB4
3C9650A4
3C95CE9E
3D29D94D
BCBD017E
BCA48D7E
3CFF3F10
3D3C547A
BBA1F8E4
BD0C61D8
3D18AA86
BAFC2EBA
3C9107FB
3CBBD599
3CC71D60
BD1D6170
BBDB9C73
BC577319
3CBD1EDA
BC55CFAB
3C858BC6
BBF648C7
3C9EFFA0
BD5DADFB
3B4BE1EB
3D445458
3D372B45
3C85857B
BCEEF805
3C21E81D
BC21AD64
BCD54B8C
BDA237CE
BC8B3B32
3D1A9A80
3BB21816
3D73B752
BB9DBEC2
BBD38477
3D0B9885
BD8FD977
BCC64346
BD63736D
BAF4F93C
BC8DC550
3C5DDF44
3BB3EDD9
BD9BCFD5
BD19C27F
3B6D80A1
3D4304CD
BBA79BBB
BC35E52A
BD2C4D66
BDD1C6D2
BD02ECAF
BC21A0CF
BCB4A01B
BD5FB939
3D063172
3D0152B1
3CF62952
BCA3CEA7
BD45F4A1
3B756EAD
3CFF90DA
3D179BFE
BB17C808
3D2B8412
BAC2A455
3C211EC9
BD24723B
3C6ABBCB
3C968D76
BD68650E
BC417226
BD01AEF7
3C16FEB5
BD466F50
3CB4CC25
BB97C808
3C89E55C
3C3D4CFD
3CCCD317
BB92EE85
BB5DE7A7
3C811D36
BDAC7219
BD80F909
BD105E1C
BC6A9E6F
BBBA16E8
BCBD6E8B
3D0691EA
BD3C8084
3B1B1FAC
3D178E5C
3C28B4C0
BA3FE3B0
BC57F51F
3D38DF7A
BD052E73
3CD7A9A0
BCB9D7FE
BCCB61FE
3D3E4BCB
3D47570C
BC073366
BCCBCADA
3D59A848
BCB43526
3D25918A
3D66DBD7
BCE0A84C
BC5898B3
3CAD55A4
3CAE514C
BCC332F0
3B8954A8
BCA832BA
BCC766C7
BCFE004B
BD186339
BC09DF11
3D141B76
BC5AB5C4
BD317BD9
3CA1DDA0
BD216830
3C8D4BAD
3C797247
BB9656EF
BCC74107
3CECC5FC
BBEB4E98
3B8E7147
BC9ADA77
3CC6F156
BC8A8B09
BCC14834
BCC8D3AE
3B97D06C
BD4C2F83
3D10928A
BB8522EA
BB605469
BCCE0547
BC529DC7
3CA6A444
BC7E32A0
3BD1D042
39AFA2F0
BC98FC50
BC4FCC5C
BC717BD9
BD7BADC1
BC48B86B
3D173C92
BC817119
BC42480F
BBD26741
3D0B0186
3CB07F24
3D320642
BCF64CF9
BD0094E6
BCA1DDA0
BD4C8ABD
BCE1AA3F
BB9528F2
BB96787D
BCC6F588
3C1F6EC6
3C02ADC5
BD126B72
BC202B84
3D0BF3BF
3CEC8B44
3C715619
3D060DCC
3D1B0468
BC6A3DF7
3BE6106B
BD0DF698
3C01626B
3C87A4A5
BC7AA476
3D16FB8F
BBC0053E
3B979E17
3CAD18D2
B9606530
3D3912DC
BC2B3248
3C2647FE
3A2BB44E
BD305B7D
3A997C3D
BD1BF26F
BD0D7061
BC654717
BBCC9A78
BCE6490A
3CBE5754
BCAED139
BD231D71
BD502EEC
3C9F46ED
BC1A2403
B9E38A7E
BAAED99D
BBFF7597
BBF9335D
BD12EE85
3C07C632
3D07075B
BD06D3FA
BC554973
BD2D8F50
BD9DF7E8
3C3B1290
3C01ECD5
BD6EA316
BC787AD1
BBD72FFD
BA7D7E46
BD10BFA1
3CA89332
BBE52589
BC05EC3E
3CCE9814
BBB6B6E1
BE80FE04
3D14BAD8
BD5CF9A0
BC91EC92
3BE0B0AF
BD209BB7
3CDC0768
3CA7BF62
BC80AE10
3AA19C9D
3D053F3A
BADDC619
3CAC98E5
3C829281
BBA4B125
BC5B37CA
3C64DE3C
BD053E2D
3C043C3A
3D67CF1C
BCBB7953
BD31337F
BD589375
BC7EE6FB
BD13708B
3B9717DF
BD5FE868
3CD05293
BCD12CAE
3C945F9E
BCBA6699
BD3B517A
3D3B8801
BAE325D5
3D5A6613
3CA66341
3C8DD3FE
3AC1DB01
BB203C4B
3B61C582
BC5872F3
BCB124D1
3C4243DD
BD117C5F
BCAFFF37
3C76FD22
3B238327
BC043809
3C97D8CF
BCA9E4D6
3CEEAC86
BC5AD752
3C2072D2
3A90928A
BC7E8AB5
3CA4F872
BD1E58E6
BBFEAC43
BC0E325D
3D552B0A
BC4FD8F1
BC609FE8
BD62CCB4
BC004966
3C27C9DE
BD19EB64
BC2B1D50
3C6075F7
BB9F4906
BC234CA1
3D6FF4BA
3C89F83C
3BB6AE7D
3C3C6EB1
3CCD0785
3CEB7ED4
3D90F16F
BCD36934
BB813448
3C9A0F0A
BBFC7A3A
BD381840
BC10E23B
BD2E73E7
3D85A815
BCA699C8
3CA58927
3D41F31F
BD0F2171
3B2C9F30
BD229A5F
BBA6FC59
BD764CF9
3D1C9E67
BD4AED9A
3D59EE89
38734507
3BEE5ABC
3D328C7A
BCEF08CC
3DA84C6A
BB9A0AD9
BC07C632
3BDD93C4
BC62046C
BCD18F3F
3C74A127
3C8B7C35
BD08919F
BDA3DA30
3D60BF5D
3C132D6F
BD102CD4
BC8C64FE
BD302C4D
3BBABEAD
3D1EB852
BD6032DB
3C83CD14
3C0240B8
BB87E38F
3CF4A98B
BD96D2AA
BD041030
3D92B453
3D446306
BCD7646B
BCC3A216
3CADFD69
BC7F7165
3CAA7371
BC7F583A
BC82645E
3CACD7CF
BD5E55C1
3C817DAF
3C818A44
BCEEDEDB
3D0B7D41
3C8AE31D
BB1ADC90
3D3B7953
BCFF6F4C
BBC892AB
3A4B295F
3CCEA4A9
BC2D8A11
3AFE260B
3D38B7A2
BCA8A82A
BC4521DE
3C53415B
3CD31551
3D14DA4D
3CB5B2D5
3D5552E3
3C131876
3CD5D1C4
BD5909F2
3CB15726
3D1BB9D0
3CB22AF5
BB02CF53
BCD04C49
BC00F12C
3CB5CBFF
3CAC5198
3CA174C5
BB82517E
BCCC2B52
BC945D85
BC2B14EC
3D1235F8
BC2D080B
3B449BA6
3CA209AB
BCDEA466
3C967232
3C6BBBA5
BCA5E354
39BDCAD1
3CC573A8
3CC1E14C
BCEADF72
BCD57DE1
BCD38CDA
3C73DC05
3CE8CAC5
3D85DE9C
3CD64F98
BD324FA9
3BEFA1E4
BC596638
3CBD1CC1
3C6FBB0E
3CE75793
BCD8793E
3D33C70D
BBF32379
3BD3176A
BCEEB2D1
3C9D6F11
3CC31162
BC9552E3
3CE7B80B
3C0240B8
3D18F3ED
BC56F976
3C922531
BCCC0DF6
BD2FCCE2
BD0194C0
3CB0079A
39AA64C3
3BB40F67
BD5C5D64
BC91537A
3C0F2E06
3CF4A98B
BAB86B16
BC607A29
3CA8EB46
3C9F7729
3D5FB2EE
BD097E99
3D732053
3C4D8559
3C4E3151
3D0A9BD0
BCA6A876
3D1CAAFC
3D08E25D
3BC2938E
BCD49518
3D62E903
3D24A59C
BCF2799A
3CB1B79E
3B9552E3
BCAF3E47
BAE29F9D
BBE7AB75
3CE6A982
BCCA3A4B
BB9478C8
BC162068
3B7DF3B6
BC65B424
3D20CBF3
BBC1A8AC
BC8448CF
BC14F69D
3C31B36C
BC0711D8
BD195AAF
3D387BDD
3CAE7D56
BCD63CB8
BBF544BB
BC4C814D
3B78F8A5
3D418E75
BCB5F1BF
3C87AF21
3CE006D1
3C26E760
3B79F44D
3C051655
BCA74C0A
BC199DCB
BC0DA7F4
3D224AAE
BD285879
3C845133
3D012381
BCCAC6CE
3B93EA2D
BBE66CB1
BB8A1DFC
BD2ABABF
3B22EC29
BCE5CF68
BC86DB51
BC49EA9A
B94C78EA
3B29691A
3C2B5808
BCAD2FE4
BCC07AAF
3C663A5C
3CFF38C5
3C20D34A
3CF75105
3C64E69F
3D00431C
3C952F3C
3C888D6D
BB1F1F15
BD478C87
3B62B064
BADC5500
BB79D2BF
BD11600F
3D528390
3C53AE68
BCEB5F5F
3CD905C0
3B036651
3C9D4520
3B8398A6
BD3440AF
3CF43A64
BD015E39
3C537C13
BA2E1049
BB27D673
BCCC5111
BA141C82
3D458794
3CC3D46B
BD1904B4
3C9A3D2E
3D30F7BA
3BD4994A
BA2137F4
BB993922
3CA9B281
BD168B5D
BBC1DB01
BC0A936C
3BB40703
BCB08BB9
3BB7FE09
BCD4C986
BA24E37A
BCAE557E
3D8C0618
3BBC9470
3B8D972D
BBBA0621
BC8CED4E
BCAE6EA8
3C7A7653
BBE89657
3C704578
BBB4A665
BC6B313C
3CF37DA6
3D439DE5
3CF53C58
3CBE07A3
3D534268
3C939A7C
BCF8C869
3D06A2B1
BD6CC708
3CD1116B
BCE58C4C
3CF03F2D
BCBE9425
3CC87B9A
3C187400
3C587725
3C50BFA1
3CDA1017
3C9FF4FD
BC77121B
3BD22C88
3BFB3B75
BC6FA616
BC69D94D
3C98AA86
BD19DCB5
BC5C3BD6
BCEE6538
3BBA493D
3D487768
BCE5D7CB
BD1BA1B2
3CE35E74
3B9118C2
3C8B7C35
3CC67382
B99AAA3B
3C5C011D
3A21BE2B
BD1F340D
3D399D45
BD27C9DE
3D1199BB
BCB2B991
BD1D4307
3D02B841
BC2E4F33
BB69F6A9
BD0D594F
BA052B4E
3A46F7A1
3D29E4D6
BD2E1156
BBDFEFBF
3CEFA616
BD1ADC90
BCBF1C76
BD341E15
BD7605AB
3B867275
3AAC7DA2
3C48A7A4
BD0AAA7E
3CDBF26F
BCA4AADA
3C103EA7
3D5AC8A3
3CEE99A6
3CD3B8E5
BD114D2F
BBDEB95E
BC3662FE
3C939863
3D045FE1
3CBA1F4B
3A24A05E
BCCADDDF
3CCC4695
BCE175D1
BCB43D8A
3C90B418
3D06A1A5
BC885F4A
BCD028A2
BD6949A5
3CE0AE97
BC2BF76A
BB1CC31A
3D52135E
BCD553EF
3CC916CA
BD254B49
BC1AF9EC
3D0CA601
BD5A6613
3C2072D2
3C8AD03E
BC1DCF89
BCDD3FE2
3C91C8EB
3D06C765
3CA8E0CA
3C40A06F
3D20BD45
3C9B0468
3C46540D
BD1F090F
BD1882AE
BA1C7FFE
3D470111
3CD0AEDA
3D1DA48B
3B74A559
3B82278D
BC873797
3B63BCD3
3D158106
3B92923E
3CBE4474
BCE29952
BC0D0CC3
BCC7D3D4
3B897636
3C5ECA25
3C6BA6AD
BD4D4888
3CAC4B4D
3B51E96C
BCA580C3
3C648627
3CF14B9D
3CB892EF
BD40A17B
3CA67408
3BE3821B
BCFAE361
BC26223E
3CC0E5A3
3D29D0EA
BCAEDFE7
BD30E6F3
BC8B7C35
3D9D33D3
3D310A9A
BD507208
3CBE3E29
3D4548AA
3D05A709
BD3E5754
BCB4B2FB
3B1C7FFE
3CB2745C
3D25C91D
3AE0A84C
BCAB10BA
3D29A1BA
3D3ECDD1
3B3B7F9D
BD109D06
3AEA7CE1
3CCFB54A
BB574928
BC5E9C02
3CB6FC16
391A2403
BB12AB69
3B88BDA9
BC6670E3
3D397EDC
B9F45176
3D2ECAEF
3CE40C84
BCECF851
BBE79AAE
3D09ADC9
3D93CDDD
3BFD9FD3
BC6FC372
BCBFD502
BBA0B1BC
3C61D218
BCCD9C6B
BC6DBB5A
3D3405F7
BC6FAE79
3CB16C1E
3B01A155
BD3D9232
3D06E3B4
3B1CB253
3CBA51A0
BC76555C
3D11F70E
BD4E0115
BB25BD94
3D282518
BC153DEA
BC436545
3CABB01D
3D71AC15
BB9E2BD0
3CA37CDD
3C391F71
BD6B68CF
3AD2E515
3C53D85A
BB78D717
BD171E2A
3C4DF698
BBAAFBC2
3C36134D
BC288ACE
BA943E10
3D2A5B53
3CDD52C1
3D80CF18
3D46CB96
BBB3892F
3C8A6117
BD00A8D2
BD42B1F7
BA8C60CC
BD47C632
BD04C7B0
3D75C39C
BC9615EC
BBBA7B91
3BC26139
BD31897A
3CE1A1DC
3C45BD0E
BC545E92
3C98B71C
3D1F0F5A
3CE29521
3C3662FE
BB806291
BC09374C
BB6BEDFA
3C8DB8BB
3C2D4F59
BD3BBD7B
BCF0AC3B
BD071B48
3BA7BD49
3D39B025
3D067169
BCA391D5
BD437A3E
BC82602D
BD34B513
BCDA9C99
3C38AA00
3C92CADE
BBA7AC82
3C891C08
BC48FB87
3CBE48A6
BCB7BF1F
3CDE13B2
BD34C1A9
3AF14DB6
BD0DB057
3CE872B0
3B9F383F
3D2EC398
BCE820E6
BC831F04
3C23FCCA
3CA5CE5B
3CC0767D
3CDDBB9D
3C8A6DAD
BC7FE2A4
BD0432CA
BC6C99F2
3B15BFF0
BCC41787
3CC9BC77
3C92D773
BC8ED3D8
3CAA454E
BCEDFC5D
3A491080
3B3630A9
3CD4738A
BC464778
BD169C24
3CD6C93A
BC81BA80
3CFC4C16
3B8AEFB3
BD107D91
3C636D22
BCD55E6C
BBC0AD04
3C9ED395
B991C087
3CAFE3F3
BCDF8099
BD3D76EE
3C083BA3
3D2DB403
BCE321A3
BCDAEE63
BD03D578
3D2E4C0E
BCBD1CC1
BC64CD75
3D50F94D
3D152B0A
3D17BFA5
3C505F29
BB5F58C1
B8D1B717
3D97DF1A
3D0F42FF
BD7E260B
3D63193F
3D4FC2EC
BCA832BA
BB977425
BC747F99
3CC90C4E
BA8FA7A8
3CA2C237
3C5FBD6A
3BACD9E8
BCA0FB22
3D6ED139
3D3A4B55
3BC96CC6
3BB70AC4
3C47C526
3C986DB5
BCD6ADF7
3CDDD4C7
3B157CD4
BCE36F3B
3D3BD7B2
BCB356DA
3BCDD93C
BCA8A611
BACBF2B2
3D384018
BCA53B8E
BC384988
3B8C5005
3D0F53C5
3D5CBEE8
3CCAD14A
3C2072D2
3D41A587
3D93C600
BC6CDD0E
3C2B367A
BCAF4ADC
3CDB8130
3C46E2A8
BD52F1AA
BC8357A3
3C80B242
BC38561D
3C657D9E
BCC1B110
3BE8C8AC
BBC625EA
BD433F85
3C9BB279
BC18EDA2
BBE043A2
3D2909AF
3D20125A
BCC0E7BC
BCA44418
3D15D4E9
BAD4DC66
3C8BC9CD
3CD859C9
3CF5E84F
BCF5DBBA
BCA91B82
3D17B635
BD3E835E
3D399B2C
BCDFCA00
BC3DD767
3CE81238
3C76A0DC
BBD91EEB
3C7EE2CA
3C226A23
3D6D05F3
BCC42203
BC3FD2E9
BC8C3F3E
3CB3B539
BC52567A
3BC22681
3D8C18F8
3D3D2524
BD014941
3A7A15DB
BC2964E9
3D3C610F
3C8255B0
3BE0B913
BC180F56
BB861E93
3D1208E1
BD5715C6
BCC1D4B7
3D318B93
BD3281FE
BCDDD4C7
3C89B952
3CED2242
BB2AEAFB
3CF1B25F
BCA178F7
BCD0C1B9
3CC727DD
3B284BE4
BCCD9620
BAFC5048
BBB40703
3CF9C411
3C3A3012
BC625C81
BB99BF59
38C73ABD
3C82B40F
3D1016CE
BD192535
3C7251C2
BCEC7EAE
BB20C283
3D12E2FC
BCDC6E2B
3BF55582
BCD3DC8C
BC4F850E
3D057F30
BC285447
BC447A18
BD42E233
BD2978D5
3CC6AA08
3CCFC3F8
3C714984
BD30D0EE
3D0F42FF
BD083BA3
3C8739B0
BD0CAB3F
3D0BBC2C
BCB5A640
BCAB191E
3BFF5C6C
3CEFF5C7
BCC42C80
BC06FCDF
3C72A173
BB813448
BCA11CB0
3AB827FA
3BA70D20
3C70DC77
BCB7F5A5
BC6275AB
3C5EDAEC
3A85B185
BC81ECD5
3AD0678C
3C004103
3CEC0B56
3CDD80E5
BAE25C81
3CD0BFA1
BB8094E6
3C6AAF36
3CBA92A3
BB4AD57C
3CE72B88
3C968F8E
3C693E1D
3C855758
BB0BA83F
3C57774B
3B8D9F90
BC0726D0
3CB31A09
BCA49A13
BD4914B1
3CCE8102
BCE61AE7
3C2F6C6A
BCFAE792
3D610BE9
3C9AAE6D
3D9B4678
BD64CD75
3D2C6EF4
BCDA0BE5
BD2122FB
BC7D86A9
3C0D9B5F
BCBA7FC3
BCBBECAB
BB1DE050
3C8A7829
3BBEF8CF
3B795D4F
3D457C0B
3BE703B0
BC3573EB
3D272B88
BD07E069
BC6C679D
BD1AF188
3BE2DA55
BAA61177
BBF5A965
3CDB317F
3C7A1E3F
BCB2F449
BC244418
BBEA8544
BCDF84CB
BC27F3CF
BC3AE46D
BD4AD795
3D5E98DD
3D002D17
BCBEDD8B
3D08C826
BA44156E
38DE4C51
BC28DEB1
3C282A56
BD593E60
BC8240B8
BCAFF089
BBACAFF7
BD400757
BD80B780
BCEE568A
3C83EA70
BD2A8976
3CEC1E36
3B93FAF4
BC9AAE6D
3D5E6ABA
3D32C1F4
BD7A1B19
3CD94079
BCC0895D
BBF190D1
BD5BD406
BD0B5675
BD617093
BCACD9E8
3DA0296B
BC8014F9
BB1E774F
BC734507
3C893B7E
BCBD5BAB
3DA0A958
BD29014B
BD22ED35
BD163993
3CACF313
3D4A88F0
3C7F7DFA
BC36F5CB
3CC7863C
3D184E40
BC5DACEF
BB796E16
BA794C88
BCA070B9
3CC7735C
3C36D43D
BCA26A23
BC337436
3B5338F8
BC6A8113
BCB606B8
BCC17EBB
BB7062D4
3CD70E6F
3D425072
BD1578A3
BD22541E
BBEB1C43
B9E94EE4
3D84E2F3
3C03558A
3D1A1CAC
BC9E94AB
3D27503C
BC89C5E7
BC46088D
BD04AB60
BD838F36
BCF036CA
3C299FA1
3B738822
3C5BD2FA
3D43DEE8
BB2D362F
BBB6E936
BC31B36C
3CEBD902
BC7401C5
3D486163
BCC10300
BD13836B
3C035DEE
3D354B06
3C01E03F
3CA46E09
3CC64DC2
3D647560
3BB191DE
3B4564F9
BCE392E2
3C58622C
3C356755
3B273F75
3CE321A3
BC42FC69
3AF51ACA
3D0866A1
BC6EBF66
BC119EF9
3B13532E
3C02491B
3C96BDB2
3BC81D3B
BC9E1D21
3D66D374
BD08F323
BD8D4C34
3C50678C
3CDDB339
3C7E047D
BC1D0204
BCD4C33B
BCDC0B9A
3D37329C
BD44901D
3D233DF3
BD0D91EF
3BAC3A86
BCA0C06A
BD8611FD
3D6B8950
BB58FD5D
3B43D252
BC767F4E
BD576BC2
BCADC4CA
BB6A8DA8
3D505F29
BB389D6B
BC4D7492
BCA704BC
BB77DB6E
BCFA4A49
BCE6B617
3D12A1F9
3BD8F4F9
3C9A8CDF
3CF0C997
BC70025C
3B6410B6
3C9700CE
3D2BC1F0
3CBD5561
3D111F0C
BCE56ABE
3CB8DA3C
BC503105
3D3992C9
BAEB8950
BCF09742
BC9BE6E6
BC5056C5
BBFA69BE
3BA79BBB
BC71172F
BC8A17B1
BD5D3AA3
3D18C2A4
3ADCDB38
BA252696
3D260C39
3CA3571D
3CB688BE
BC1FC2A9
3C85A922
3D272EAE
3B6E49F5
3D56C615
3D73E682
3D844391
3B6D4E4D
3B0C60CC
3D822F6A
3C9EC2CE
BC92EE85
BD33FC87
3C33CC4B
3D1702E6
BC7A5094
3C8C36DB
BC1741D1
3D4A6762
3CD02470
BB89A88B
BB8D2A20
BC983947
3C897636
BC05D313
3D12A62B
3D3992C9
3C9FA97E
3D058687
3D421F2A
BAD4994A
BCBFB374
BC19FA12
3B1203A3
BD4651F4
3CF8897F
3D474B84
3CAD6452
3BDDF00B
BD21C151
3D28661B
BB3C05D5
3C8CED4E
BC92D128
3CBD31BA
BCBC6003
BBCC35CE
3D446A5D
3B9D94D1
BD4E22A3
3BEA52F0
BD04AA54
3C248B65
BC967CAF
BAE15012
3C38AA00
3D343D8A
BCB458CD
3C86B7AA
3D70318C
3D2AD81B
BCB52EB6
BCFDFC1A
BC920C07
3D5EDBF9
3C057F30
3BE65BEA
BD4A7F80
BD1D0C80
3D0CBD12
BD286940
3D03E319
3D1476B0
BD353E70
BCF0025C
BC5BA909
3C2515CF
3D28C9B8
BD0ABA38
3C3B7F9D
3C8F25A2
3C7BE33B
BC6B1C43
BA477DD8
3CA146A2
BCA43FE6
BD446A5D
BC20A958
BB67FF58
BC2EE200
BCD7C6FC
3C3ACB43
3BE7E62E
3C10DE09
3C933C1D
BD1A2F8C
BB34D057
3C5FF3F1
3B198D04
BD2A11ED
3C5DF43C
3CE20CD0
3C896356
BCB72E6A
3D5F4906
3B87229F
3BF15619
BB9DB65F
3A87CA64
BC1E6256
BCFB99D4
3C850375
3CFAA8A8
BD5462C3
3C7B71FC
BC0A7A42
BC3D987C
BAED5F14
BCBD1AA8
BBAF3E47
3C0461FA
BC626916
BCA9D40F
BC9A3F46
BBFD86A9
3D36F2A6
3B0CD63D
BD1C4977
BC6CCC47
3C84AB60
BC9DBCA9
BC7E0CE1
BC9361DD
BD032FCB
3CC36FC1
BBA19C9D
3CFA615B
BA31BBCF
BD070FBF
BCE30447
3CD2DECA
BD60DCBA
BD4868BA
BC6B5B2D
BCE22C45
BD401712
3D7DDA8C
3CC58CD2
3CEBD4D0
BA349E02
3C58622C
BCA1F4B2
3C229C78
3C46AC21
BC2109D0
3B5E0935
BD1B328B
BD33AABD
3BE9CCB8
BBAF251C
BC57FD82
3CAF72B4
BB849CB2
3CEF6D76
3A13D966
3D07BAAA
3CAF9442
3BEC41DD
BD7BE122
BC59D777
3CE16B55
BC3A2BE0
3D20A84C
3B3630A9
3C2AD602
BCAA1B5C
BCC22AB2
3D074645
3BF38822
3C76D331
BCC33D6C
3CE95960
BD15D702
3C0E086C
BC2CC0BE
3CDCF030
3C82BE8C
3C13C03C
3CCE3583
BBE99A63
BCF1B691
3CE4388F
3D64D1A6
BBD4F590
3BCDA6E7
3C862D41
BB0D8EC9
3BF96E16
BB73FD93
BB0EDE55
3CD96C83
3D0DB37D
BCA5FC7E
3E0E6927
3D2553AC
BDD92C8C
BD766D7A
BD6E3D60
BD70FBEC
BDB4256C
3D0AC8E7
3D1984A1
3D234CA1
3D891D15
3DC4EB57
3CC63CFB
3E0E7968
3E08A47F
BC2C1095
3B412275
BD5610AE
BE11FA33
3D7722E2
3CA7264A
BD0A85CB
BDE4DC23
BDCB3355
BCFDDA8C
BD1DCA4B
BCFE79EE
3D96249A
BCE0BB2C
BBCC4695
3C4D7492
BD287C20
BCA018A4
3CB4549B
BCFC1590
BD6369FD
BD19F905
BBAAB8A6
3DC1EBC8
3D889657
BDA3968D
BCB78466
BD04D014
BD88BE2F
BD5578A3
3D027D89
3C456D5D
3D153049
3BC2CE46
3D1BBBE8
3D700368
BD0331E4
3DBD028A
3E116590
3DD55D5F
3DB5D356
BD52A1F9
BD53B18E
BDF1F0C3
BD9B9064
BDCCB189
BD9458CD
BD9BD1EE
BAF16F44
BD2C1095
BC678E19
BDBC53F4
3CF9181A
BCB63B25
BCCBCCF3
3DB8A00A
BDAC88A4
3D8B67C3
3D971540
3DC73472
3C00303C
3C88E9B4
BEF85DD9
BF2F70CE
BE144285
3EDDD2AF
BD06F9BA
BBFCC5B9
BDBF633D
BE794962
3D7B42CC
BDAF1E4B
BD6A172B
BE2087CA
3E907161
3DD0D9D7
BDC5AA2E
BCE451B9
3EDE6EA8
3E42C882
3E3E6EA8
3D0FB54A
3E22107B
3E513900
3EA4ABE7
3DF5A4AD
3CA1DB87
BDECFB76
3BFB86F4
3E846738
3EADAB9F
BD24FB98
BE3DAE3E
BE10BD45
BD9FBCE4
3DC8BB90
BCDCF894
BDF7D524
BEC7876A
BE25D4E9
3DB61911
BD0BCDFF
3E57C41A
BEB4371E
BD351EFB
BC256580
BEEC8494
BDAA5721
BD93A366
BDC83EC9
BEA2C4B5
3C2C5C14
BDF23EE2
BDD30165
BC255087
3C1A2835
BDE70C99
BE521F6D
3BCD9620
BD80A8D2
BBCB966C
3C36B6E1
BD58A761
BE394AF5
3CD71D1D
BD48765C
BD3C9EED
BE029281
BD515161
3A99BF59
BDCC985F
3DE6AB15
3D732485
3E3188F4
3DD4E1A4
3C88C3F4
BC1691A7
3D1465E9
3DA7F130
3E8EC0B5
BDFE2824
BE236695
BDB6E9BC
3D9E9A70
3E8CD2F6
BD398740
BD763C32
BDA2BB66
3E1B0575
3C7AB53D
BE571609
3DD03D14
3E01700D
3DEBF7F0
BE2F6A51
BE99DB23
3E93E575
3EA9094A
3DAFD9FD
BE1F15E8
BC97F413
BD5E2EF5
3D69A6F8
3D90678C
3E0B3248
3E01ECD5
BE122CCB
BE3C05D5
BE61A650
BD1A921D
BD38151A
BDFD81F1
BE0D47BF
3C132D6F
3D199AA6
BD3008A7
BD85FAEC
3DBAE1CE
3DFEED46
3A83FD50
3DA58F71
BC5C7EF1
3DCEA423
3DF14EC2
3E5EDD48
BBA1A501
3E0CE5F7
3E2CD35B
3E5E2824
BB82278D
3E293AB4
3D391D58
3CB4F82F
3DE1198B
3D8DD378
3D19CAE2
3D247022
BC936827
BEA84EA5
BCB2B12D
BDAE6213
3DE16CE8
3D8E0DAA
BE7D4025
3DA77708
3DCCD63D
3DF317F0
3E606962
3EABA733
3E864E8B
3E0F36AC
3D7850DF
BD1C8430
BC5B65ED
B8388CA4
3DEEB3DD
BD82BA5A
BB3966BE
BCDF2CB6
BCEF8F04
BD980991
3D4A9479
3DA1F85D
BD004EA5
BD79170D
BD393576
3C20A958
BBF91A33
BC7FAC1D
BC1307AF
BCC3265B
BD3FE2A4
3CA46BF0
3C6D56B0
3C669271
BC288F00
3E4D0636
3E5E29B7
BE358AFC
BE1BE7B0
3D8D22C9
3E119264
3DD548ED
BD8E28ED
BE07FCB9
BE3ECC3E
3E555326
BC99FA12
3CB6976C
BBB9E493
BE1126E9
3CD71D1D
BE084838
3D0C1DB0
3E09D884
BD453C15
3BE3582A
BDE0DF59
BDE03E64
3AA45D42
BCC12AD8
3C0AC5C1
BD83315D
BD1C3159
BD9418D7
BC20B1BC
3C305FAF
3DA7D34E
3D6F9B99
BCE6362A
3D1691A7
3D67253E
BDF0F27C
3DAAE643
3C18E10D
3BF76E61
3CDB22D1
BC29AC36
BDA3F78C
3DC9906D
3D8A28FE
3D2A9C56
3D3254E7
3D732BDC
3C37DC7B
3E0CE67D
BDAA832C
BE2D230C
BDD9D4D8
3B839043
3CE26D48
BDD5DDD3
BD05AB3B
BC238B8B
3D25C5F8
3D8A9824
BC878961
3D2FD86B
BD2DF82B
3D6032DB
3D6C42EA
3C9A5871
3C95054B
3DAD4DC6
BD9AE1CE
BCA3FEE3
BD819E30
3D584902
BDE8B652
BE03F78C
BDC2C12B
BD04F6E0
3D4EA5B5
3E541637
3E404791
BADAE3E7
3B47D1BB
3C5DC619
3D65CC42
BD750E34
BD8F2303
BDA1919B
3D38E8EA
3C418B50
BCD234EC
BDE19653
BD38AB0D
3D564841
3D92D6ED
3D3316E3
BD265F0F
BD3AA25E
3D8B6955
3E30E5E6
3C4C8DE3
BD4F440B
3C984C27
3DA1FEA8
3D67E73A
3D191AB9
BC2E5BC8
B9D4DC66
3CB211CB
BD8A4FCA
3CB6C15D
BCFFED20
BCF27781
BCE0B6FA
3DC00000
3DF7FB6A
BD3EB4A6
3D7A9C13
BC1C23B8
BD0B73D2
BD74D595
3B73CB3E
BD3AC81D
BC97E133
3D7B6998
BD2E9036
BD7DDCA5
3C74F0D8
3D47F66F
3DB1B25F
BD88EB46
BD77FCFC
3CCCD962
3CA96B33
BDA4028E
BE0EB570
BE059C49
BC5D7236
3D3E49B2
3C87980F
BD1D909F
BE3EF284
BD4F3BA7
BDBAD645
BCC74320
BD8CFC83
BCF8EE28
3D623C00
BBF75D9A
BE60D3D0
BE17E415
BDFC7475
BCA93294
3EE7ACC5
3ECD6B44
3EA6EB70
3EC29FBE
3D869271
3E34FDF4
BBF89C5E
3E46173C
3E1398A6
BE8609DD
3C6EF5ED
3E360AA6
3DFCC74C
3E1BE4CD
BE2095AF
3E6308FF
3E428C7A
BE346B6A
BD93F749
BB1528F2
3E9710CB
3E7EC4A4
3D7F290B
BE2AE579
BDB6CF85
3DF7A0B6
3D766730
BC14C448
3D919935
3D97A67A
3E68A19D
3E040FAA
3D78A4C2
BDBA554C
BD2C14C6
BB612E84
3D625205
3E39F87F
BD3D7F52
BE2937D2
3D03686A
3E08FB44
BC822BBF
3D6E18AD
BE3AA9F8
3AA54824
3E3749AE
3E7DFC5D
3E556ABE
BE21D4FA
3D595033
3E42806B
BCC0DB27
BDB0D738
BCB8EF35
3B0D2A20
3E72A2C2
3E191212
BC283B1D
3E061ED6
3D65E354
BDFCF67B
BD449A99
3C649F51
BD93F63C
3DB7FC76
BB66D15B
3D840208
BD92AA5C
3CFBFA4C
3D92B6F2
3D8FBDAD
BC0893B8
BBE73E68
BC48A372
3E0A11ED
3DE588A0
3CDA72A8
BCC7E8CD
BD9E01DE
BE136C9C
BE62CA58
3D8712E4
3DA4901D
BDE05C46
BD7CBD55
BBD16335
3D9C022A
3D584C27
3B4B8E08
BDF3CAB8
3CCB2D90
3E17D9DC
3C856C51
BCF9AD00
3C90AFE6
BC8C5A81
3DF615EC
3D4F2496
BD831AD2
BEAA0903
BE84AF2D
BEBE188B
BEA9F2DC
BD7EE914
BDBA54C5
BE002EEC
BD216B55
BE86B724
3DB4994A
3CFEFBF4
BE9CE054
3D2A1B5C
BBF8487C
3E03EEE5
BE0BF8BA
3A5C3372
3E42938E
3DD13272
BE4749F1
BEB055FC
BDE49C2C
BE33FE5D
3D103644
3D191149
3D9FCB92
3DCA50D7
3E10B45B
3CBF11F9
BD2234A8
BD291A76
BD776D55
BD9456B4
3D9A0275
3AA222D5
3E13B9F1
3DF117B5
3DAF3ECD
3D0943E1
BC01387A
BBFA4830
3D326D05
BD14F052
3B09C1B5
3D844B6F
BD042D8C
BD055326
BD2EE30D
BD8A01AC
3B1A9974
3DDC8755
3DF0624E
3D72799A
BCA9930C
BD7B7521
BD21FC09
BC918C19
BCEFF5C7
3DB70DE9
BCBF290B
3D69142B
3CB122B8
3B74A559
BD57C4E3
3A73CB3E
BD4957CD
BC054046
BD06A3BE
BDF8DAC2
3D8707E1
BDB3CCD1
BDCF60E1
3CF16D2B
BC6C17EC
3D5CAC08
3DD74ABA
3DE9D495
3E2AD645
3D43BF72
3E505A2D
3DEA93F3
3EAA717A
BDF7DD87
3D96B096
3E50BAA6
3E5753E7
3E9FC611
BDD553EF
3EA58362
3E10B3D5
BD7A9F38
BCE22813
3CB866E4
3D94994A
3D2F598A
BE2E68E4
BEA015E4
BE9811D3
BE5FED63
BC0A0903
BDE41E58
BE514984
BE235EB7
BD7E5EAB
3D98D930
3DC535CA
3D3A4830
BD981840
3B232F45
3DCD98BF
3D11DEF0
3D0B1BBD
3DA4C48B
3CACBA73
3D63D923
BD3B9064
BBEFB2AB
3DA3DB3C
BCE49907
3DD9CE8E
BD5058DE
BDA8D196
BDB8DD61
3D8810A5
BBF6A50D
3C689A89
BD749BE9
BDD71434
BE21D14E
BDE747D8
BD041893
BD36E1DF
3C014D72
3DA9563B
3C374DE0
BD4CEA29
3DBA9F38
BD55629E
3CAA1F8E
3DB4983D
BD20C06A
3CA57A78
3D1F1AE3
3B092AB7
3E33C6C9
3D1B4AA9
3DE19221
BD0C7C0F
BE04BFD3
3DD9CF14
3E90D60A
3E29478D
3D9CD706
3E182F51
3E0487BA
3E94A750
3DBB39E2
3E974BC7
3E167D35
3DC18937
3DACF180
BCDAD752
BE077D52
3DC1693C
BD330F8C
3E83AA7A
3E1BCCAF
3E339219
BD9D1AA8
BC7A58F7
3AED5F14
3E11CE29
3DDB39E2
3D6D4802
3E43DA73
3D1E4F76
3CA96F65
3D30B7C3
3E36A2F5
3DF0CAA3
3D734507
BDE2B51C
BD64E593
3E73B363
3DAF2629
3DDA3098
BE3A265F
BCCFDD23
3E3C4A41
3C854AC3
BD7AD5BF
3C4625EA
3E427BF6
BC71C758
3E39D4D8
3D89EF52
3E01E8E6
3E3A048E
3D964170
3DD60A63
3D83E39F
3CD7F306
BE0FEA3E
BDCA62AA
3BF44913
3E24C8BD
3CB30510
BD513C68
BE404253
3CE5D5B2
3D70995B
3CB992C9
3D2553AC
BDF776C5
3DEDD7AA
3BE6C8F7
BD16D8F5
3E0F89C6
3C3191DE
3DA1797D
3CC6C97E
BD97EF5B
3BB34E77
BCD464DC
3C90C4DF
3DA49907
3D9CD2D4
BC3DF8F4
3D7AF428
3BEC84F9
3D281ECD
BBF2BECF
BD65DAF0
BE5B4E98
BD856C51
BA9E774F
BC644FA0
3DD6AF04
BCAA4FCA
3D2EE957
3C8711D8
3D4283D3
3D1A2E7F
3C02517E
BE0930BE
BDC11DBD
BD873797
3D5248D8
BC071E6D
3DB99BB2
3E4BD406
3DAC0AD0
3D282518
BCB9A7C1
BD0FAACE
BD02B94E
BDB4F50A
BCF993D5
BD318549
BC95B574
3DB5B91F
3D325C3E
3D999A20
BD8EB702
BDB30B5B
BCD2BF55
3C967664
3D7B139D
BCEFF5C7
3C6EFE50
3C7FB04F
3D15F245
3E0206C8
BD2D46F6
3D2FB7E9
BDD4E22A
BDF6CDF2
BE196BFD
BDFBF727
BDB48FDA
BE5898B3
BF10C187
BE8FA509
BEAA8416
3D536C59
BE8C6349
BF6955E7
BDFCAD9B
BD874320
3CC7B891
BED3FDD6
BEDD93E6
3DF8A548
BC2EDDCE
3E20BE51
BD2AF790
BE4847B2
3C44A83B
3CDBD945
3CD08B33
BC4FB763
BB873366
3CD97918
BCBB81B6
BD8E7DDD
BD228672
BC9A1FD1
BDAF123C
3D3F3BEB
BCE6A769
BCADD591
BD2D3B6D
BD9B8801
3DBC78A7
3D1004FB
3D35E0F8
3C784CAD
3D52556D
3D0D4131
BB14812C
3BD6CB53
BE0805E6
BE3672FC
BE05C359
3DF215FD
3D5439DE
BE09C0A9
BD8BFA09
BC18D8A9
3D868555
3E55B74A
3E317DF2
BC389939
BE306C44
3C837F7C
3C91D367
3D38C75C
BCFA4830
3DDDA837
BD052935
B8E27E0F
3DB30AD4
3DC391D5
3CFAC604
3D813986
BB58DBCF
BD39C737
BCF1CDA3
3CE13F4B
3D56909B
3D375643
3D8EDCC2
3D9A0275
BE25D13D
BD9EDA66
BD6B5E53
BDB16873
BDC37E6F
3CB2A27F
BD361CBD
3BAF9229
3C0E4B88
3D180B24
BD21511E
3D6CBD98
3BA5E786
3CC0D2C4
3E24F6E0
BD129025
3DA38C11
3AEDE54B
3CF56862
3D308894
BCD57364
BE7B5419
BE1AE819
3D2DDCE8
3E98385C
3EE0B439
BE902B1F
BD962068
BDCD759F
BD6F3B21
3DCECBFB
BDDB677F
3D8BC0E4
BC83BC4D
3DA13EC4
3E29D55E
BD4C2720
3B8B2208
BB9E5E24
3D30E3CE
BC4C7D1C
BE2E1933
3E5D5D3E
3D73D3A2
BD80DC33
BD6A5A47
BDF82CB2
BD806C87
3DA46C76
BCB58AFC
BE49231C
BC1D2392
BE05F288
BED94DF9
BE92B94E
BE9DA405
3E912429
3C92274A
3DC807BC
BE335611
BE6EEF5F
BBABDE40
3DDF401C
BE10CDC8
BD3FFDE7
BEC6E675
3E632DF5
3E84BB5E
3EEDFC1A
BD2F3F53
BE6C6C98
3DA4A83B
3C796180
BCD0CC36
3B421E1D
3D5188F4
BCC2CE46
BD0D306A
39D9945B
BE22E2FC
BC7E64F5
BD27253E
BD12C5A0
3DCA771D
BD738B48
BCAA51E3
3D0B8173
3D0BF7F0
3D6D6FDB
BB61D649
BBD42C3D
3DFF8A8F
BB33B320
3C292A30
3C70D413
3C2B14EC
3D55EE13
3DABEE80
3DE200C1
3E01EABC
3DD4B05B
3E0CDFF0
3DFD1EDA
3DFB56B8
BD1F6662
BCECBFB1
3D58E53F
3DEDE226
3D6189BE
3D8D1C7E
3D9D6BEC
BE96F805
3DDBA882
3D8F5FD4
3E1F4F0E
3E84DEA0
BE82DF93
BE3B1898
39DDC619
3E22595C
3E277E1C
BD173754
BE8E96E6
BEE16DF4
BE7BB16C
BE470004
BE0F212D
BE579B35
BE18ADAC
BDE2A0A9
BE5B078E
3D278290
BDFA33BE
3D15CFAB
BD9269E0
BE327E95
3E4146E5
BD3CBB3D
3DD9053A
BE1D28D0
BD4BAD7D
3E0D701E
3E4A5764
3E504684
3D1CB578
3D77542A
3DC9DE8B
3E933051
3E00E6B0
3E1C4439
3E7389B5
3E6A450B
3E84940C
3DE2AA9F
3DC6DDF0
3D753719
BDA34DAD
3CAA2C23
3D8EA316
BCCE3DE6
3D39D5E5
BE1FF972
BE42B23A
3E51FC09
3DB9DA16
3D505F29
BE451655
BE8EB9C3
BDA52A41
3E2DB4CC
3E64912A
3D07A17F
BDE6EE31
BDCEE49F
BE2F6BE3
BDC6DC5D
BCC0DD40
3CF71002
3C027FA2
3DF98A65
BC46583F
BA02CF53
3CC05F6C
BE08F862
3B1C90C5
3D52146A
BC37CFE6
BE034DAD
BD7B2EE0
BCE362A6
BC9B9735
BD72CF96
3C11B3F2
3DC82E02
3D37414A
3C6C0F88
BE91EE03
BED684F1
BE1C07AB
BE286AD3
BE8A57A8
BE069553
BE72556D
3C4D3177
BD575AFB
BD08D8ED
3C694680
BCC4C7B0
3D641D4B
3CC792D1
3DBF24D9
BD262AA2
3E3423D9
3DD9E0E7
3EB0999E
3E14677B
BE64EBDD
BCF8854D
3D2E08F2
BDD7C808
BE554089
3C8B007A
BD503537
BD59C5A4
BE0D013B
3D314A90
3D084A51
BD3CD035
3C6A3162
BD221859
3B04944F
3DF2617C
BD903644
3DA3D146
3E03B539
3CABEAD5
3DCE19B9
BB9D3027
BCB53501
BDD546D4
3CAE83A1
3D4E64B2
BB4BAF96
3C66D9BE
3D3C03BC
3CC100E7
3DDD00F7
3DF779EA
3E67739F
3DCA4767
3DB72368
3D983F0C
3E90C0CF
3F061A50
3E9F125E
3E844B90
BE303148
3D60A41A
3E947000
3E40CA1D
3C92D773
BA3F5D79
3D4901D2
3E6155D6
3D0E92D5
BE80B0F2
BDA18373
BE21D7DC
BEA7D45A
BEB5CAF3
BE8C1E15
BDAB2852
BD0779A7
BDE515CF
BDFCE39B
BDB50A89
3D534ACB
3D23EE1C
3CE8DDA5
BCFA41E5
3CE1F18D
3D4FCF81
3D601EEF
3CD9FB1E
3D3AE148
BCB5610B
BD30E6F3
BC513511
BC6DC3BD
BD78E2A0
3D3720C9
3DA9C886
3C4BAF96
BD3D1676
3DCC73AC
3DF29FE0
3D842742
3DA2CDC0
3E640AAF
3DB11ADA
3A86BDF5
BC1E94AB
BD7940FF
BD654B49
BBDAF4AE
3DA41355
BC933E36
BD212A52
3CA087CA
BA5B6A1F
3C2BC515
3D15C422
BD74D057
3D254C55
3BCE9A2C
3CBC1052
BC637154
BD186877
3D66CA04
BD1F6662
BCC48F11
3D905C89
3E1CAE64
BBD19DED
BD8C1227
BD09331A
3CF76E61
3CA95C85
3DB2BB23
3DD17482
BD29AD43
3D25DAF0
3DB5C076
3D4DB37D
3CA5C5F8
3D161E4F
BC8CFE15
BD21CBCD
BD0475E6
3D8C404A
3D6004B8
BBEC0F88
3C6CEDD5
BDDEA1C7
BD395B36
BDDAEE63
3C117D6B
3E209CC3
3E876556
3DE74320
BE2085F5
BD30BD01
BDB2B991
BDA0A287
BD22B9D4
3DFA06A7
BBBA51A0
3C64E69F
BD837825
BD16C509
BD289657
3B2EB80F
3D60D024
3D86EFC3
BD8D1B71
BDBCBA30
3C63EF28
3D8B6FA0
3D494E5D
3DE46BF0
BD3B645A
3D698CC1
3DFEC67A
3DB80DC3
BD92D7F9
BDEA7504
3CCF073A
3D4D141A
BDAE3B47
3B84944F
BD92263E
BD007464
BADB4891
3DBB0681
BC94FACE
BC720EA6
BD82DF0D
3D15BCCB
BD135547
3E371DE7
3D29A0AE
BDE40AF2
BE1B584B
BE2C5932
BD8EEB70
3CC3C18B
3E3949A5
3D0101F3
BD698245
BD0F4C6E
3D2480E9
BC320B80
3C8D2A20
3B9E0A42
3C750A03
3CB1C433
BCFB8B26
3D0D9514
3D13ED52
BC947AE1
3CD7F951
3D32D1AF
BBC2CE46
BCE006D1
3CB32F01
3CF7F067
BCFCF1C3
BCB19829
BD0A7B4E
3CE9B7BF
3D3AAEF3
3BA4B125
BD38DE6E
3D51F3E9
3C83C4B1
BCE08073
BD470004
BC21A0CF
3C9A7C18
BBD3BF2F
3BCBC05D
BCC89D28
3CDB3E14
3D0240B8
3AC17657
BD17B528
3D51CC10
BD1F17BE
BD11A650
3C1F2FDC
BB88DF37
BC16073E
BB5CFCC6
3CBA2DF9
BB9802C1
3C57F0ED
BD004A73
BCA3810F
3D8A758A
3CCC8DE3
3A61719F
BC068BA0
BCD9D777
B9302928
BD03BD5A
BD3A7653
BC304AB6
3D883CB0
BC9DE8B4
3BCCDD94
BCBF6A0E
3C04F8F9
3CD388A9
3CC866A1
3B0216C6
BC3E61D0
3CB443D4
BD06AC21
3C93DB7F
3D148A9C
3D0EE6B8
BBB28D86
BD1FC5CE
BB2C9F30
3D233BDA
3D837BD0
3D21A71A
3C69680E
BDCB3D4B
BC1A3098
3C953587
3D018612
BCFEF5A9
BD515DF6
BCB39192
BCCE65BF
BC756649
3D1AF07C
3CDB8DC5
3C80713F
3D8B723F
3AB2E9CD
3C8D3283
3CCBD556
3BAC0831
3D725C3E
3B8ACE25
3CEA960B
BD10D499
BD39C51E
3CCF355D
3D188A05
3DAE6D16
BC4054EF
3D23A190
3D4F53C5
3D35781C
3CE3864D
BC3CB5FE
3C472192
3C288F00
3D57B635
3CA1D324
3D5756C9
3D7BFC65
3CE10492
BDB0E4DA
BC3BE015
3C88B114
3C058794
3CF544BB
BD04BC27
BD5D81F1
3BCA8199
3CB1098D
3D3F1E8E
3CD71088
3CF1D1D4
3C68AF81
BC5F2ECF
3C569D30
BCFB6FE3
BC48D196
BC6B8D82
BD0EEE0F
3C779421
3D11C7DE
BC48E25D
3B0B86B1
3CF587D7
BCAD83C7
BCACEAAF
BCC9A77E
BC81D7DC
3C94317B
BD0E7360
3D25A89C
BC94EA07
BC750E34
BC849881
3CD6451C
BD4434E3
BB3588E3
BD0CCCCD
BD67D88C
BBEC9E23
BC784CAD
3D3240FB
BA9E3433
3B96030C
3C37A1C2
BAA808C8
BC74D7AE
3C57E026
3D086057
BC00C309
3CC7F77B
BCBBE660
3BD39DA1
BD751373
BD296C40
BCCEA6C2
3CD5475A
3D0346DC
3D541206
3C8218DF
3C9A2E7F
BC51D042
3D3BFD72
BC3DFD26
3AFDC161
3CBB96AF
BCA2749F
3C7A4C62
BC5A48B6
3D1D4845
BD121CCE
BD021E1D
3C814F8B
BCD4738A
BCBA3A8E
BD33A68B
BD2DFB50
BD1DE8B4
BD61B3AF
BD65B424
3C5DE7A7
BA8FC936
3D7EA5F8
3D1BCA97
3CB2A27F
BC9378EE
BCA1CAC1
3CF1B047
3B45B8DC
BCBDE3FC
BB97396D
398A697B
BD454AC3
BD7FB481
3D11C6D2
3D04B6E9
3D2BFDB5
BCC9320E
3C89203A
3CC04EA5
BC85143C
3D2B9D3D
3C735E31
3D4E7686
3D9BD599
3D2F0F17
BC8A7610
3CB25919
BBB50B0F
3B180B24
3C41871E
3D355369
BC144674
3CD184C2
BD427FA2
3BE8C048
BC9EF30A
3B09B0EE
BD3162AE
3C8181E0
BD00EBEE
BCCEF028
BC95E397
3B73775C
3CC78E9F
3C0D92FB
3D57EAA3
3C8A1166
3B4DEA03
3C727781
3CD5970B
3CF2BECF
BD44BD34
BC9847F5
3CC9320E
3C995CC8
3C548883
3D9DCD70
BD0676A7
3C62B064
3CA0C06A
BCE56ABE
3C25F41B
BC46CDAF
BD3DDEBE
BA241A26
BC82F72B
BD18A548
BA638A7E
3CB68CEF
BCF79208
BCAB51BD
BBE9DD7F
3C3C5DEA
3D15896A
BA113A50
BCF59EE9
BCD1FE65
3C8D60A6
BC4CB3A2
BC94C016
3CF91C4C
B911C087
BD14F377
3CF14552
BD8D9408
BD338B48
3D0ECE9A
3BDBBE01
BD1CC101
3CB87379
3C9FE64F
3CC026CC
38F98FA3
3D946F58
3CB7AC3F
3CB9BED3
BBDE5D18
3D61CBCD
3C98CE2D
3D2BF338
BC74CB19
BCC914B1
3B7722E2
3D779D91
BC3A8C58
BD676534
BD0EC311
3C934699
BD2234A8
BC13964A
3C7FB8B2
BA902DE0
BD153261
BBCB5BB4
3C6B0319
3C85271C
BD04D65E
3CC83233
BCAFD75E
BD12B3CC
BCA2D517
BCC8754F
3D0FD19A
BD0766C7
BD61A826
3C1C9928
3B0A9BD0
3D88B3B3
BCEC80C7
BCDD4413
BB54DC66
BD60791C
BC2A4767
3CC61D86
BBA27F1B
BC7E6D59
BCF6AF8A
BB0472C1
BC899392
3D548DC1
BC4810A5
3CF08462
39AFA2F0
3D04C48B
BC4C1440
3D1E68A1
3C48A7A4
3D59C5A4
3CA6FE72
3C7F7DFA
3AC2E771
BB407AAF
3D195DD5
BD4D3283
3CEFCBD5
3B8E0C9E
BC888723
3BF26AEC
BBFE60C4
BC51BF7B
BD380453
BBE89EBA
BD56733F
3C427A63
BBA686E8
3CAAF9A9
3AA15981
BCE618CE
3C20C283
3D6921CD
BC80CB6C
3CAF3A15
BBF0281C
BC85FD05
3C7D9770
3D0A48F9
3D0B5675
BD85C4EB
3D0ACD18
3CDE1199
3D3F5E85
3C882ADC
396496EE
BAAF8162
BC755DE6
BCAA2C23
3C126C7F
3C40DB27
3B42F838
3BF0E90C
BD1D909F
3CA68901
BC9B738E
3C67BC3C
3C00A5AD
BD445ED5
BBC2D6AA
BD07A8D6
BCFFFDE7
3B5972CD
BCC49774
3C1B456B
BD672218
BD83C42A
BB4A0C28
3D186EC1
BD15C316
BD233051
BCE90BC8
BCD49518
BD426EDB
BC92CCF7
3B5F3733
BC77F8CB
3DB3354C
3CFD156A
BCF7B9E0
3AA3D70A
3C97DD01
3D8F3ECD
3CAFE60C
3CDD5F57
3CDA31A5
BCA25D8D
BD7BBC6F
BD42BA5A
3D22A4DB
BD33B96B
3CFF3F10
3B0C1DB0
3BD130E0
3B4E2D1F
3C959C49
3D302A35
BCBF8551
3D221C8A
3C2B0425
3C4FFEB0
BBFA58F7
BC8F7122
BD5FCE31
BBC0A4A0
3D150B95
3AE991FF
3C8A009F
BC9E03F7
BCC68230
3D96B65B
3CF20642
BCA3F67F
3D176CCE
BCE8448D
3C30E1B5
BC9B8CB9
3CE9DF98
BBFE047D
3D022899
3C9F7510
BB8D972D
BAAA64C3
3C4E0B91
3C359579
BD00DD40
BD256580
3A0EDE55
BC96D2AA
BD1A8DEB
3C454BCF
BA83BA34
3D1A9542
BD622C45
3D10EDC4
BD1B9F99
BCCEB357
BCDB4CC2
BD47A17F
BC8E0221
BBD306A3
3D26772D
BCD48883
3D869E80
BCBD8384
BD295315
3C85985B
3C1BA5E3
3B9C4546
BC4C5B8E
3D1EB420
3D25CF68
BC3441BC
BCB44A1F
BC13A2E0
3B15E17E
3C4A2553
BC81BC99
BB95FAA9
3C8FA7A8
BC5DACEF
3C7266BA
3D137D20
3D96605F
BC6DE97D
BCF0C77E
BD06F263
B9BFE3B0
BCCF82F5
3CA06C87
BBB313BE
BBF2AE08
3C432229
39CA600B
BBF57710
BCCC4CE0
3D38359C
BCEEED89
BC96DD27
3CCAE85C
3C6E807C
3C39841B
BAF4D7AE
BC487DB3
3C8BB2BC
3D48CF7D
BC469729
3BD3D85A
BC4FFEB0
3CF2C732
BCA0A73F
3D07FED2
BC929025
BCA6809D
BC20EC74
3CFBCE42
BC810625
BD5FCB0C
BD37164C
3CDC37A4
BC5F266C
BD301323
BC967664
3D2960B7
BD1C8EAC
BD2B777D
3BAC6477
BCA4F872
BC29A805
3CBE596D
3D083CB0
B961719F
3A8205FF
BC2326E1
BC88F649
B896FEB5
BD0F15E8
3CF08249
BCDC8B87
3D15BCCB
BC99B2C4
3C73775C
BD0FAEFF
BD01626B
3C161C37
3D14562E
3C8F42FF
BCC2528B
BB216A48
3D058FF7
B9E27E0F
3C0750C2
BBD9C6B0
3C82D9CF
BCEBC622
3D099F1B
3C87442C
BD22AB26
BCA3F67F
3B8BC16A
BD1E5083
BC5F2A9D
BB95AF29
BD6EE84B
3D22552A
3CADE658
BC686834
BB0FD9FD
BCA0125A
3CEFB6DD
BCD9F4D3
BC596E9C
3D6325D5
3BC3C9EF
BC527807
3BB417CA
3A48CD64
BD23BBC7
BCFCBB3D
3C2BDA0E
BD0E336A
BCA003AC
3C725A25
3B0DF373
3C54306E
3A36F9FD
3D52018A
BC453B08
BC9235F8
3CE40E9D
BBB228DD
3D47D806
BCDAB192
BCDFCE31
BD26DACB
BCE9DB66
BC3E6A33
BD6CFFA8
3C6B5B2D
BC6279DD
3CC26784
3B78C650
3C83FD50
3CB2DB1F
3C7C1590
39D349BF
BC85E1C1
3C9BDC6A
BCC58CD2
BC62E2B9
3D36FF3B
3D611FD6
BCBD7D39
BD7383F1
3B53CFF6
3B76AD71
3DA24895
BC8C49BA
3BA9B49A
3C8BB0A3
3C9E7FB2
BC0A1DFC
BD01F751
BD6F709B
BD163BAC
3B0F861A
BBA5375D
BCB91F71
BBA73711
BCF08894
3C953BD1
BC652DED
3D14F15E
3D1D93C4
BC45C9A3
BD681FDA
3D07FAA0
3D7DF2AA
BCE2F380
BCDFC19C
BCD6C509
3C7B0D52
3BB88CA4
3CA743A6
BCE47779
3B0AAC97
3C9085F5
BBF87AD1
BC365A9B
BD155A3A
39A6B93D
BBCE0B91
3C31F256
BD0EFFE3
3BEE0F3D
3C8CDC87
3CE35611
BD0E39B4
3C917B53
3CCB31C2
BC40767D
BC75EC81
3B5C4439
3D42CE46
3D095183
3D1DC93F
BD034C1B
3D6E33F0
BD60D66F
3B756EAD
BD1DB878
BCE2413E
3D238540
BBEDAA93
B8D5E8D5
3CBDA943
BC7633CE
3D1987C6
3CB65450
BD015D2D
3C4ED0B3
BC93CCD1
3D05D745
3C914F48
3B412275
3CB5C7CE
BD3CAA76
BB473ABD
3CF13CEF
BC9E8A2F
BC9E16D7
BD496BBA
3B1BE8FF
3CC49FD8
3CD184C2
BC971E2A
3C21CEF2
BD7BACB4
BC2DAB9F
BCBBD380
3CA5CA2A
3D84B87C
3C370260
3CB52EB6
3C8A9BD0
3CFD2631
3CAEB1C4
BCEAF46B
BCC7496B
BC410518
3D05DD90
BC51569F
BC675793
3C28D21C
BCB2A6B1
3C8385C6
BBC56D5D
3CD698FE
BCB30510
BCAFA722
BCC666ED
BD0D9F90
BD237586
BC2F8594
3D30CBB0
BCF383F1
3C67FF58
BC67A744
BCB76F6D
3C97939A
BB9C23B8
3D00BCBE
3C2ED99D
BD108C3F
3C94EE39
3C860FE4
3CBF67F5
BD078B7A
3B8661AE
3D60F4D8
3CCBFB16
3C788766
BCD9A30A
BBFA58F7
3C2AC53B
3CC2CA15
3B15D0B7
BD03EB7D
BCEAEC07
BCF9E9D1
BC9A5A8A
BB1ADC90
BC926202
3CA6527A
3D03D46B
BCC308FF
3CD67126
BC202321
3AE00086
3D1491F3
BB9A0275
3C1BA5E3
BC72239E
BA51FA33
3C0F3A9B
BD5332AD
3D615550
3C3F4880
BA64DA0A
BD2C55C9
3C19BB28
BB86C658
3D355CD9
BC81BC99
3CA31C65
3B1CF56F
3C9C10D8
BC0A1DFC
BD112557
BD3F9D6F
3C06338B
3D13176A
BCC6173C
3D12E72E
3BA64C30
3CEEE526
3B63BCD3
BCDC981C
3B9A3D2E
BD3F1737
3C60FC2F
3D29CDC4
BD41DE27
BD59439E
3C168D76
3C8CEF67
3C9422CD
3C1FF92F
3D01DB01
BCCB4289
BCACE465
3BF3A14D
39BFE3B0
3B8BDA94
BB854478
BA8A697B
3CB3B107
BC79BDC7
BD5906CD
3D10BB6F
3C8A6330
BD788228
BD13458D
3CB7585C
3CEF501A
BCE2CBA7
3D0298CC
BB43F3E0
BBA6DACB
BCBDB1A7
3D210ADD
BBD3E921
BD12AA5C
3C6492BC
3D16E265
BCFA0B5F
3CFB84DC
BC71886E
3CFA786C
3D01DD1A
3827C5AC
3B9AF5BA
3D54A904
BC4EC41E
3D301D9F
BD52B4D9
3D3F61AA
BC154A80
3D40FBA9
BD0A222D
BCA513B6
3C589CE5
3D10E560
39095D0B
3C770DE9
3C6FD007
3BE3C537
BD61272D
3CA3A6CE
BD502FF9
3D10B956
BC60D23D
3D4EE393
BCAE019B
BB7B86F4
3C22552A
BC4E032E
3D41A36E
3C7A3337
BCD25248
3C4B46BB
BD5B3398
3A473ABD
BD870197
3B30079A
3C69C023
3CBE1651
BCA7D242
BA6BEDFA
BCECF206
BA9B0EE5
3D9510D4
3C5740C4
3C82EA96
3CBA8C58
3D9AE3E7
BD271690
BD18C2A4
3D8F5FD4
BD0ECA68
BCA0E1F8
BD7E9857
3CA595BC
3CB8433D
3C328523
3DC51EB8
3C8795F6
3CCBC05D
BCA5F41B
3B829CFE
BD2C56D6
3D113B5C
B94A600B
3D8F87AD
BD4AD795
BCA5B74A
BB5C981C
3D3865D8
BBBAADE6
3A3955F8
3D3229E9
3CE40421
3BE19B91
BC3ABA7C
3CA16E7A
BCB7E6F7
BC2F4ADC
BCD1A869
BD37BD06
BC62DE87
3D08B439
3CE7DFE3
38ECFA6A
BB4BE1EB
BC98EFBB
BD3D88C2
3D01A47B
BD042E99
3BE325D5
BD06CDAF
3D0CE1C6
BD79A7C1
BD82B628
3C8D4563
BC852503
3D771434
3C806078
3C9A048E
3CB90EAA
3BA4A8C1
3C89D063
3C7965B2
3D239714
BC961C37
B97CB4F2
BC4E52DF
3CF78573
BCB6B2AF
3C154A80
BCF455A8
3C8B3B32
BC386B16
3C1E8816
BC058794
3D582880
BCE290EF
BC7CDEE3
BCC790B8
3BC258D6
3D194F27
3C67AB75
BC14812C
3D25FFA4
3D050CE5
3CFEC56D
BC16D091
BD6C625F
3C2A5C5F
3B8BD231
3CD3458D
BC2EB80F
BD83161A
3C6EB2D1
BCB8CFC0
BD33BC90
BCBCAFB4
3D3459DA
BBDEF417
BAD887EC
3DBA1123
BD42656B
3D94A0A1
3B9C022A
BC1D94D1
3D113D75
3D483EC9
BCEE5471
BD327675
3D4B630B
3BA09891
3D6C96CC
BC781E8A
3CF12C28
BBC42E99
BC8A9153
385A1A93
BC2EAFAB
BD67C7C5
3D4342AB
3C446951
BD5ABD1B
3C22A0A9
BA27C5AC
3CA4A8C1
BCF39D1B
3C9697F2
3BACFB76
BC8A99B7
3D41626B
BC134699
3CDECE57
3C10D5A6
3CBB927D
3CCE3FFF
3D45271C
BBE09FE8
BD2C8A37
3C347842
3C9CE28F
3B6B4635
BD0023A7
3D42BB66
BAE086BE
BD098E54
3D0D6E48
BD27125E
BCD3C361
3A66F2E9
3CE44956
BCAADC4D
3CBB0C46
3D36C69B
3C3DFD26
3D0013EC
38B24207
3BC97D8D
3C65C91D
3CB0F8C6
3D2B2AF1
3CAE3C53
BD5CBEE8
BB5BBE01
BB191794
3CF5C4A8
3CBA7FC3
BCD9AD86
3C6E06D9
B9E1F7D7
BC900A39
3D447B24
3AD64D7F
3CD95358
BD43632C
3C64A7B5
BB539DA1
3C9B024F
BB659296
3C8BE729
BD34D6A1
BCFDB4CC
BD5C92DE
BCE39B45
BC10214B
BD7AC3EB
BCAE0E30
3CE30660
3D113C68
3D6D1AEB
3D1BB491
3C91C4B9
3D1CD5FA
3BEB1C43
39D349BF
3CA5EFE9
3CC8BA84
BB943E10
3ABA40D9
BC5E3758
3CB6F199
BD48FEAC
3CA600B0
BD70A3D7
3C95182B
BD11AEB4
BDA88723
BABEB5B3
3CBAADE6
BB867275
BC9D66AE
BB188095
3B49A77E
3D507C85
BCC28B2A
3CC6E2A8
BB6EAE9F
BCC152B1
BD353932
BB69F6A9
BCE63C75
3CE29521
BD6EAC86
3BBAC711
3CC202DA
3C2BD5DC
BDAFB54A
BCD87F88
3B4CCCCD
3C426139
BBE3A3A9
3C728C7A
3D2DF0D4
BC163561
BCC9ABB0
3D7396D1
B79F6230
BD2595BC
3C69899C
BD01C4FC
3CCECA68
BD23A084
3C1EA572
3CF2E05D
BD18F0C7
3CF8EE28
BC900E6B
B9462E4D
3D459D99
BC219008
3C05DFA8
BCCEA290
3CA734F8
3CCC89B1
3CB20D99
3D3ECAAC
BB999568
BCAAC754
BC1F05EA
3C925DD1
BD196313
BB4D423E
3CCDA6E7
BC394D94
BCBC42A6
3B5716D3
BCAEA52F
3D050481
3BE703B0
3C61693C
BD4FDD23
3D53E2D6
BCB3B320
BC779852
3C749CF5
3D08CA3E
BD551C5C
BD31E083
BC1D7775
BB26EB92
3C65F30E
3C107D91
BB36A61A
3D13D74D
3BB7D417
39A2877F
3C9D755C
3C7F2E49
BCA515CF
3B2C8E69
3C92E408
BC93C255
3D073366
BCE950FC
3D0BF2B2
BD413986
BC9E3C97
3D068EC5
BB81FD9C
3CB738E7
3AB502AC
3C2DA33C
BB6F0282
BBD434A0
BCDA1449
3CA018A4
3CB9A177
39AE9681
3B49B845
3D5A5226
3C8B588E
3C8A84BE
3B1E44FA
3C7D2A63
BD20FB22
BCA0CCFF
3D86698C
3C0F96E1
BC473ABD
BC538045
3BE38A7E
3CABC515
BC8AC7DA
BA55E8D5
BD446951
3CAD1D04
BCC8472C
3BADDDF4
BB3D017E
3CBE2930
3C9FC8F3
BC091E21
BC8ADABA
BB6581CF
3D18DDE8
3CC521DE
BD0C1FC9
BB8F0846
BCEAE5BD
BC3927D4
BC2871A4
BBA2120E
3CA1DB87
3C6670E3
BB2F3E47
3CEC8F75
BCDE2AC3
3B0F7553
3C0DE2AC
BC8B34E7
BCE84CF0
3D02784B
3C5DDF44
3D1AA609
3D1695D9
BCD130E0
3A8CE704
3B7227D0
BB936C59
BD05DD90
3CB0C671
BD4EE286
BC10928A
3D57BFA5
BC88765C
3E3B1DD6
3C576AB6
BC79DF55
3BFADF2F
3D3FFBCE
BC18F1D4
3D2FC58B
BC94C661
BCC66905
BC67B80B
3C0A6117
3CD8E432
3CCD594F
3D707182
BC76B1A3
BD94AA97
3D015C21
3DD3F530
3D3C05D5
BCBBE879
BB24A05E
3D0447C3
BCC8A7A4
BD115593
BCA44A62
BC78EC10
BB87229F
BC206EA0
BC59DBA9
3C8C5868
3BFB2AAE
BCE01BCA
BC894A2C
BB815E39
3C163993
BC4CD962
3CFF8EC1
BD020F6F
3C4E3DE6
3C158106
BB8B08DD
3C7811F5
BD451655
BCE770BD
BB96CC60
BD08ABD6
3BADA33C
3D01F538
3D3BBD7B
BC29EB20
3D31D606
BC845DC8
3C12F2B6
3BF765FE
BD40FCB5
3D3FDC59
3CE4CD75
BCADAFD1
3D065A57
3D3F1F9B
3BE4A7B5
BD073EEE
BAD3CFF6
BC53F5B6
BC5D0D8D
BCF1F57B
BCC332F0
BD38AE32
BCCEDD48
BCB929ED
BC9DE482
BBD338F8
BD7649D4
3B950FC7
BD328416
3D07A073
BC62B064
BD1B4BB6
BD352546
3D8F14DB
3D34DF05
3D240746
BD75B2D5
BD05100A
BD06BCE8
BD269CED
3D92031D
3C59B5E9
BCC5D420
BA0C825A
BD801BCA
3DC18B50
3C572BCB
3CB4A87E
3BD1AEB4
3BA5B531
3C5F00AC
3C80064B
BD213C25
BCDBA6F0
BD9E3E29
3D066F50
BD35019F
BB837718
BC9C193B
BD29680E
BBCDC012
3D8623D1
3D1D1D47
3C8EF998
BD30F7BA
3D653DA7
3D598BF8
3DB96D8F
3D529457
BBAAC109
BC19BF59
3CF30E80
3D4C2507
3CB4A234
3D4D2B2C
3CEF9980
3CEE9BBF
3D7FCEB8
3C9322F2
3D1003EF
3C5C3372
BD26B2F2
BD1A37EF
BBC32A8D
3D241A26
BC9B5632
3C19CBEF
3CF0B6B7
BCEBC409
BD4B3700
3C769446
BCCFACE6
BD6EFD44
BDA4DC23
BD253EB4
3C610492
BCE5CB36
BB28C155
3D3BACB4
BBFEBD0A
3CBFB15B
BC677D52
3B73FD93
3C657109
BCA3C42A
BC6A3DF7
3C27FC33
3CFE5A79
BD6DA555
BC4ADDDF
3CB31E3A
3C13D103
BBF25A25
BCB48B22
BD648733
3C8129CC
3D8C84F9
3D0FCF81
3C057F30
3CDBF488
BBA71583
BC067AD9
BCDB120A
3D507D91
3D73FEA0
BCE48840
3DAE8B7E
3CE7F0AA
BA8509C0
3D8CCB3A
BD1552E3
BD182FD7
BCF56217
3C4B8E08
3C7EDE98
3C8BB0A3
BD1CA3A5
BCAF20EA
BB2E9681
BC5B0DD8
3B757F73
BBF99807
BC807FED
BC75A101
3CDBBE01
BD1BD838
BC9D6F11
BD1B1316
B9EA5B53
3C1E94AB
BB3923A3
BD1F42BB
3D318CA0
3CBD5992
3C770154
BDAAD927
BCCBC48F
BC70A1BE
BCA5A89C
BC3B773A
BD77D955
BD48A266
BCD7ADD1
3D2C3FC4
BBC1094A
BD9801B4
BD3B1D0D
BD279789
3AEE06D9
3CA10E02
BD0856E7
BDFAE600
BCB139C9
3C0F0846
3D3EE1BD
BD38D717
3CC4B4D0
3D40B88D
3DE8E4FC
3D032CA5
3CB91B3F
3BDEDAEC
BBC35CE2
3D5DDA06
3CAE2DA5
3BF08CC5
BC4D0FE9
BBF0E0A8
3D0DDC62
BD0C32A9
3CE0EF9A
3D039368
BCAA3F03
3CAEF2C7
BCA35F81
BC91B1D9
3B205DD9
BBA99B6F
3C385E81
BC2C29BF
BCC8C500
3D4BC9CD
3D903AFB
BCE43ED9
3D0BE729
3D06B26C
3CF50C1C
BD63C643
BBA4E37A
BC22C669
BCC4AE86
3A941C82
BCD4A5DF
3CB3ACD6
3C63C537
BAF62739
BD02235B
3CCB1EE2
3D227AEA
3D252AC7
BD5208E1
BD2BA494
3D4BCF0B
BB9784EC
3CBA81DC
3B57279A
BC86833C
3C31AB08
3D15CD92
3C4E789E
3C2C8E69
BCCD466F
BC28D21C
BD0485A1
BC8F16F4
3CF229E9
BD169B17
BD4ED4E5
BD33E250
3CC579F2
BCF3A9B0
3D05271C
BC78A090
BD2F0069
3D578C43
3D1F926C
3CB7670A
BD3419E3
BBD04E62
3B5045FE
BCEAD927
BA99BF59
3CC0CA60
BD0CD63D
BCEEE0F4
3C686834
3C9CF9A0
3BA4228A
BBFCEFAA
BCD0678C
3BF4F0D8
3D195CC8
3CC2F1ED
3CD1ED9E
BD007EE1
BC766A55
BD5AD107
BCCE618D
BA09A027
3D84DCA9
3CCCBE1F
BCB05532
3D82EEC8
3B58665E
BD270E2C
BC6D4A1B
3D94C554
BC8D77B8
BD3F748A
3B84AD79
BC9A1DB8
3CB21816
3D39A5A9
3C33AABD
BBB6F9FD
BC0EA7CE
BD02C7FC
BC4E464A
3C89B520
BCF0E90C
BD8EA748
BD0219EB
BCDDD096
BD2F661F
BCBD9A95
3C8C5C9A
3C7D60E9
BBA3161A
BD30F5A1
BC42D278
BCCE4EAD
3D812620
BD0E79AB
3B9C347F
BD2B399F
BD2043A2
3CF4F50A
3D05E6FF
3D1AE70C
BCC2BB66
3B91EA79
3C3CB5FE
BD3F3494
BD4FB118
3CF0691F
3CF6640A
3BD2E515
3D85F395
BCE3C750
BCD25461
3C3EA0BA
39F34507
3D6E08F2
BC5FBD6A
BC161C37
BC99157B
BC3C1ACE
3C81CF78
BA1C3CE2
3B9E774F
BC6EFE50
BCF45E0B
3C7C5CDD
3D02E126
BBD87725
BD24D1A6
BC6581CF
3D400EAE
3BAE18AD
3D8B4D8C
3D37AB32
3D814F05
3D66F502
3DABFEC1
BC82CF53
3DAC08B7
3C907D91
3D03EEA2
3CA27D03
3A8A697B
3CFEE0B1
BBF31B15
BCC62C34
BD5591CD
BD1EA034
3B000EAE
3CA888B5
3D37036D
3D12C16E
3C8A3D71
BD2AE7D5
3D7356DA
BCA3A8E7
BD709D8C
BD6E275B
3CBA2164
BCB599AA
3D020F6F
3C5D8B61
3C0D0892
BB98F606
BD01D8E8
BCE01DE2
3D74A772
3C94F69D
BCA72863
BCF7CED9
3DC5D52C
BC883340
BC568837
3D08A04D
3C0611FD
BBDCA8E3
3C9DC50D
3C924074
BC6A2D30
3D160631
3D6559F7
BBE9CCB8
3B76598E
BC938BCE
BA65A35D
3D3ABA7C
3C91E215
BC9285A9
3D05B5B7
BC4E39B4
BC6ED45F
BD92CCF7
BD0E50C6
3CD0E12F
BCDB3E14
BC49EECC
BD0129CC
BDBD9BA2
BBD74928
BC1235F8
3D263A5C
3CF2FDB9
BBD013A9
BC0BDEC6
3D3F1412
3B05C24C
BD61CBCD
BCB382E4
BCB53501
BCA12B5E
BA25ACCD
3B88CE70
BD00FECE
3D5045FE
3C277E5F
BC368CEF
3D875600
BBF5C28F
3C919696
3BE3BCD3
BADDE7A7
BCD2C387
3D03686A
3CC07AAF
BAD9F905
3BD05F29
BC659F2C
BA878748
BBE5C4EB
BC99029B
BD00A9DF
3C874A77
BC7E1544
3DA13D32
3D4538EF
3BF0C77E
3BF8A4C2
BD2493C9
3D8A58B4
3D2EA854
BD0956C1
BD6C8A37
BD3BCE42
BB473ABD
3D521CCE
BB8F648C
BD78A5CE
BCD95571
BC83CF2D
BC3EE808
3C5DF00B
3C902BC7
BC2C7970
BBADD591
3BAA9718
3CCD7492
3D60AC7E
3CD59924
BD2D6883
BD9CE8D9
BD5362E9
BD36AA4C
3CA7DAA5
BC5F8B15
3D292C49
BCF6EA42
BC2A9718
BD7FBBD8
3D32830A
BD75525D
BD683C29
BD093101
BD515F03
BA8DD1E5
3C1B8CB9
3CA85A92
BCA9435B
3CFB3743
BC09A027
BD23F67F
BC2F1887
BD246AE4
3BA2B170
3BDBD72C
B80637BD
3D2A8B8F
3B83EC89
3C69B7BF
BCB4BD77
BD1551D7
BD9C67E0
BCA87E39
3C449FD8
3D1696E6
3D1B4CC2
BC809B30
3CA83B1D
BCF967CB
BD0D4DC6
BBBBE447
3CB636F4
BC906467
3C3B83CF
3CA67C6C
BB119EF9
BD0B2B77
BBC92147
BC8342AB
3C1320DA
BBA71583
3C83F91E
3C0FC0D3
3ACD63CC
3B5D0D8D
3CCE9814
BC69856A
BC99029B
BD61C79B
BC3213E4
3D8282C7
3D0E7792
3D21A933
3C058FF7
3D726289
3D147171
3D6FD652
3CBB1AF4
3D0A45D4
3C5FA872
BC60D23D
3B914B16
BCE17A03
BC0C2E77
BB939EAE
BC952D23
3D5FACA3
BCD614E0
BC4EFED6
BBFBD274
3CC8216C
BD69FADB
BD4D7E02
BC787AD1
BCAD538B
BDAEDBB6
BD042635
BB8398A6
BC72495E
3D0D7F0F
3C0FEAC4
3D04BA0F
3D0D2F5E
BBCBFB16
3D1E8A2F
BC411E43
BC705A71
3C8B630B
3D4D8BA4
3BCF1801
BC483233
3C3F444E
BCD4EF46
BCA89763
BCB79314
3D0B502B
BCDF4E44
3ADBAD3A
3D5F6CAD
3C14317B
BCAA3F03
BCC13DB8
3C64473D
BDACA149
BD003793
3D2F9768
BC8BF7F0
3D3394B8
3CD73A79
BC7E32A0
3CAEF6F9
BBC4AC6D
3CE46CFD
3D3C6DA4
3CE7620F
BD58D152
3CD58EA8
BD31D92B
BC4CA2DB
3C62A3CF
BD03B4F6
BC85EC3E
3D60EC74
BD327781
3CA1D324
3BE94EE4
3D966E87
BBB649D4
3C41A47B
BC318549
BD371FBC
BC9A0F0A
BD097636
BD1081C3
BD06D506
BD2E935C
3D279EE0
BCA3FCCA
BD417B96
BD185DFB
BD027FA2
BCDEE782
3A56B229
BC92189C
BE079FED
BD125DD1
3C24CA4F
BD0E7792
3C52B6F2
BCCBF8FD
BC32FEC5
3CE39714
BCE5C704
3D240208
BC427632
BD1AC14C
BD8B484D
BCDFD04A
BD29A911
BD040BFE
BC408744
BCDFEDA6
BADEF417
3C04F4C7
BD89DB66
3CD3A605
3BBD017E
BD10ADCD
3C211666
BD7C3A43
BD78E087
3B3966BE
3D5B39E2
BCCBD556
BA131013
BC90D9D7
3BE746CC
3D2A7371
3BDF9379
BCEF86A1
3C723CC9
3D336AC6
BD09D7BA
3C05B185
3C88893B
BD3C5BD1
BBC764AE
3C062B28
3CC6D3FA
BD1FA765
BD028C37
BCC2FE82
3BEBB342
3C1C62A2
3C977857
3D2B723F
BC587725
3C1DBEC2
BC30E1B5
BB384988
BD004B7F
3CF8012E
3B97AEDE
BCD388A9
3CF2085B
BC88850A
BD4E65BF
BC907747
3CDA1449
3C842310
3A6CFA6A
BC1C022A
3BEC41DD
3C1BC771
3CB63B25
BD384BA1
BC2D106F
3CEFEF7C
3D73B320
BD11B3F2
3D017657
BCCD7CF6
3BC08B76
BD3EC13C
3C601DE2
BD292E62
BCE43AA8
3B28F3AA
BC1EF0F1
3D2B90A8
BC0FD9FD
3B9F72F7
BD04651F
3CDAF8DF
BCDD00F7
BD0DA1A9
BC1014B6
BC81754B
BC98D8A9
BB8FF328
3CC3DCCF
3CCC404A
3C18D478
BC4BEA4F
BC138DE7
BCAD234F
3C9CD812
BD138CDA
BAECD8DC
BCA6E547
3CC764AE
3CD73861
3924A05E
3CACB210
3D0DE8F7
BA417657
BCB7AC3F
BD35A31A
B83CBE62
3CA82624
3D17D6B6
BBEEE0F4
3CECAEEA
3B2393EE
BCB9BAA1
3D877AB3
3DB85165
BCBE2B49
3CCF355D
BC90D5A6
BCA8E92D
3C408744
BD6C8A37
3C813A93
BA9A0275
BC8CF7CB
BD9A1F4B
3C8FC71D
BC924D0A
BCC0EE07
3A28D21C
BCD05D10
3BAEF2C7
BB273F75
3D1378EE
3D400432
3CD89481
BC606D94
BAE9B38D
BBDED289
3CE4CD75
3C86C43F
BCD44135
BD43C07F
3CE51F3F
BD365CB3
BBD7C6FC
3D0E0547
BBE6A769
3D131EC1
BAE0A84C
3C46540D
BC961C37
BCBE4CD7
3D7C9EED
3D4B923A
BC58665E
3BF14552
BCE8EC53
BD4C2720
BC446D83
BAA7C5AC
BC6D1BF8
3D484A51
3C37995F
3CA1D756
BD664D3C
3C28EF78
3CE58A33
3D2451B9
3B323140
BB6160D9
3CB47E8D
BD8E58A3
BCCC20D5
3C4BC05D
3BA4B125
BD26234B
3C903EA7
BC55885D
BAB78034
3CCC660A
BC0C6D61
BCCABE6A
BA81A155
3D1084E8
BD2075F7
BC052B4E
3B242AED
BC77DB6E
3C6A209B
3D305426
3C580A18
3CC39FFD
3B61719F
BC308DD2
3C40053E
3C237AC4
BB550EBB
BC243FE6
3CDBC44C
BC635C5B
BD0A1273
BCC666ED
BD2EF6F9
BD98409E
BCD35222
3D32A066
BC49C4DB
3C9C51DB
3D091E21
3D654D62
3D20C176
3CBA42F2
3BE4DA0A
3D4E8965
BCFA8501
BC9641F6
3BA6C1A0
3C9E9292
3CCDA2B6
BC6FF195
BCE22C45
BD7D0BFA
BC6BF65E
3D2B8306
BCA4C1EC
380E9B39
3BCE8102
BD6B0EA2
3CC892AB
BA627E0F
BD14067D
BCB3CC4B
BCA69596
BC6C4A41
3A03126F
BDBF162B
BCF78573
BCDF86E4
3D17396D
3A854CDB
3D3B7415
3BABC515
3D166ADB
3D42107B
3B866A12
3BF14552
3DD1CF35
BD79C1F8
3CF6DB94
3CA81345
BD0BD556
3D7543AF
BB8112BA
BD21C79B
BD4A5ACD
BD0A48F9
BB00E8C9
BC05DFA8
3D52641B
3BADF71F
3C8EF566
3D3F3062
BC5AE819
BD56F113
BC5DBDB6
BC1680E0
BA941C82
3D1A60D4
3D4EA6C2
BCBC03BC
BA25ACCD
3C0E0C9E
BCE223E2
3C8B178B
3D1A77E6
BCA2680A
3D0EF45A
3CE1C369
BBE53650
3B41B973
3C6D2CBF
3CA2FF09
BC7FAC1D
3B14E5D6
BC2E70C1
3CE7A312
BB5A6E76
BD61EF74
BD5E9292
3C0255B0
3CE85554
3D05271C
3B3A94BC
BD5EA67F
BCF1843C
398E1501
BC71ED18
BB3B6ED6
BD59E625
BCA3358F
BC597F63
BD7A6DF0
BD0BBE44
3D54CCAB
BD3B0D52
BCDF761D
BBF09529
BC83C4B1
39CD8559
3D1DD2AF
BD4C8DE3
BD644C7B
BD60F6F1
BC8129CC
BD544780
3D410518
BC2F1023
3B8A04D1
BC3D3804
3D2835DF
BCAEAFAB
3D0E8FB0
BD59B2C4
BD1ED6BB
BC52A1F9
3C62C12B
3C791E64
BB147065
3BC79F66
BD0E5E68
BC22B9D4
BCC36113
BA856E69
3C65D5B2
3D431594
BC1A3D2E
3CB97354
3BB0AF60
BD26E547
BD8196D9
BD639714
BC4779A7
BC728848
3CF8D4FE
3C9C64BB
BCCB4AED
3B91537A
BC24B988
BC471D60
BD931099
BCF45176
BD2EE632
3D2411C3
BC890710
BD070A81
BAA2EC29
3A078748
BCAD490E
3D33BD9D
BC294FF0
BA71B25F
BCCFCC5C
BCFBE985
3D56C615
3C8BC383
BC49D9D3
3CF37111
3D075F70
3C168512
3D6A9B4A
3C87570C
3C7EC13C
BD131013
3D1578A3
3CD332AD
3CAF1887
BA9FE868
BD48A04D
BD505D10
3CEBB98C
3CA7AA69
3BA77A2D
BDBF78BC
BD7559B4
BD911D7A
BCDACCD5
3C95182B
BD2D0B31
BCD9D990
BD3BEB9E
BD54994A
BD4301A8
BDA99179
BCF90321
BCC5C78A
BD8D4D40
BCF4F0D8
BD60C176
BCC52E73
BD74DDF8
BE09231C
BD147065
BBF92AFA
3D4739B0
BD3B0707
3CB93682
BB624BBA
BD1974E6
3D69307B
3CDA1017
BC13708B
3CB8F9B1
3CDE43EE
3A52C387
3D0B5DCC
BCFA6BD7
3B19E0E7
3D38B264
BB539DA1
BB131013
BD246AE4
BD30DA5E
BC800000
3D254824
3966AFCD
3CCD5D81
BCFA615B
BCB2D906
3C4564F9
BCCAB3EE
3D0F2496
BD1AE819
3A55E8D5
BD41322F
BD6D02CD
BCD3AA37
BCA90258
3CBA94BC
3CF15A4B
BC56E47E
BD83736D
BD1FD157
BD0AFF6D
BC4AE211
3CD2DCB1
BCE8D328
3CD783E0
3CFC47E5
3CABFFCE
3D881C2E
3D370585
BCB50F41
3C2EEA64
3B9E6EEB
BD31F14A
BD316A05
3C5206C8
3C05510D
BCA682B6
3B1EA9A4
3BD7BE98
BC085D31
BC48ABD6
3CD20D13
BD128390
BC7661F2
3C652DED
3D03675E
BCD76EE7
3C90E454
3D0A0903
3A5130E0
BD2F8CEB
BA1784EC
3CED86EC
3BFD438D
BAB26395
BC924AF1
3A72BECF
3BF0739B
BC7AACDA
3D28C261
3C3FEC14
3C373083
BD554973
BC9882AE
BD256BCA
3D538AC2
3C5612C7
BBBF6E3F
3D2ADE65
BCA7264A
BD099BF6
BD0FE8AB
BC3B4917
BD803AB8
BCFEA5F8
3BCD7CF6
3B788334
3C0E25C8
3CEBAADE
BC619FC3
BD193709
BC3A3CA7
3CF314CB
3D4ECB75
3CCDE3B9
3C85E3DA
3BCC575C
BD48A47F
3D2CD4AA
3CF61459
3BDD377E
3CD6C0D7
3CF84A94
3CB9799E
3D1EE99A
3CD3DC8C
BBF123C4
BD2174C5
BCAA77A3
3CDA7F3D
BD88FD1A
BB9A5658
3C8AF816
BD2ECE14
BBFDC9C5
BBFC610F
BD8E5CD5
3C0E3AC1
BCEFA1E4
BCE3D817
3CF6CCE6
BC801B43
BCA59C06
3CFEC786
BBC8A372
BC62717A
3AC32A8D
BC6CF638
BA15F245
3C5D4C77
BBC14403
3A0B75EA
3CA3AF32
BC11CD1C
BC9908E6
3CE85986
3D597E56
3D22C450
3D618698
3C47F349
3C6A1837
3D8D01C1
BC8B7E4E
BD1AC365
3CE31B58
3CD33094
3D81A36E
39BD449A
BCADE226
3C845DC8
3B6ED02D
3CA63F9A
BD2594AF
3CC6AA08
3C34DCEC
3C2087CA
3C59C6B0
3C906898
BCAF038E
BCCF4624
BD631A4C
BCF2EF0B
BD878855
BCC1DF33
BADEF417
BDCCF4A5
B9A20147
3B95F245
3CB126E9
3D1F82B2
BDB04923
BD8F1993
BD8328FA
BD92BB23
BD812620
3CF11516
3D446B6A
3DC6AFCD
BBCA03C5
BE183559
3D2A66DC
3DB69B17
3DD754B0
BC1A671F
BE252BD4
BD50B956
BB76DFC6
3E185A92
3EA60FE4
BE16AEC0
BE2C59B8
BA8E581D
3C056606
BB583409
BCDEE569
3B32D906
BD2188B1
3DE493C9
BD17EDC8
BCD7F0ED
3B01E471
BB12BC30
3D9FD934
BD84E486
3C9057D1
3AE325D5
3CEE19B9
3CAA4B99
3C202FB6
BD70E90C
3CA03E64
3DA5FD05
3D2EDCC2
3D806C01
3B298AA8
3B97635E
3B3A94BC
3D82174C
3C5C4C9D
BCD21145
BDB451FC
BDD9C6B0
3CB2EDFE
3D64EBDD
3DB11623
BE0ED41B
BB7ABDA1
3CD2BB23
3E06002A
BC2B2181
3D7F36AC
3CD81ADF
3C18201D
3D7ECDD1
3C9E3EAF
3B688590
3E837CFE
BE0A8E2E
BE347F56
BE2EA52F
BB3F0996
3EA2BDE4
3EE21C04
3E508638
3EE00A18
3EFB0920
3E5897EA
396BEDFA
3D924420
BD32745C
3E9AA759
3ECD5022
BDB1A544
BE3B03E2
BE23AD9F
BE968A50
3EBC447C
3E73732A
BD67C9DE
BDC490A3
BDFCC533
3D7A43FE
3DA7D912
3E0889C2
BDE6CA04
BD8A92E6
BD3912DC
3DF841AB
3E2B3355
BCCC89B1
3E05A89C
BD1C5932
3E91945B
3ED43FC4
3DAC3E32
BE1EFBB1
BEC5F288
3EE128E1
3ED453B1
3E81DEAD
3DBAD4B2
3CE68C26
3F037C67
3F092418
3EBB0729
3E5AB4FA
BE1DA837
3E834E77
3E8836EB
3E147E07
3EBAD128
3CE47779
BCB4202E
3C92B7FE
BD99F2BB
39CAE643
BD028A1E
3E1991FF
3E4BF65E
BD3CC3A0
BD500C52
3C13B7D8
3E358E22
3AA4E37A
BE347779
BE0FD5CB
BE052546
3E10D6F5
BD1641F6
BE4EAE5C
BE1EEA21
3D207C42
BBBD7F52
3E040315
3DA3454A
3D8188B1
BDB6EAC8
BDA7D6F9
BDE4D76B
BEA43E75
BE532485
3B3B5E0F
3DEDF612
3E2026CC
BDFB3C82
BEE25C5F
3D7252CE
3E81D7DC
3DC6A5D7
3D46A2B1
BDE010C7
3ED1DF76
3EA14C88
3E115CEA
3E86876E
3E73126F
3D02BA5A
3E9D7CB3
3E2774AC
3E927DED
3E80CC14
3CCC1EBD
3D52EC6C
BDE5204B
BE09AE0C
BCDC853C
3D1CE4A8
3D70995B
BDB05D96
BDE2174C
BCB24207
BB54BAD8
BC7EF7C2
BCAB68CF
3CB81D7E
3DB2C5A0
BE7AD927
BE4DB1A7
BDD9902A
3CA1E3EB
3E0155D6
3D5E9292
BDCAB2E1
BD987E7C
BDE308FF
3C138DE7
BD574928
BD593815
BDCCA9AC
3CAE33F0
3DD77319
BD929670
BD8938DE
3CBD7907
BDB8E3AC
BD62B496
BEB9D4FA
BDA2FA51
3D9F151E
BD2E5FFA
BE696F22
BF37CD8A
BEB31DD6
BDC5EBB7
BA751ACA
BDA6F04A
BEB1F688
BEC04168
BE5D8948
3CA1A2E8
3E152696
BCB04CCF
3B082F0E
3D9000C9
BC46DA45
3DAD80A1
3C226A23
BCFA0514
BC67DDCA
3CD57BC8
BCFEB6BF
BD0B9A9E
3DB83ADA
BD13910C
3D1C93EA
BC75E84F
BBE2B8C7
3A9A2403
3D3A9B07
BD195140
3D18B503
BD0AFF6D
3D08A58B
3DC1C609
3DD92210
3D845AA3
BD4038A0
BDA8533B
BC028805
BCE4F11B
BD1BB9D0
BE2F62B7
BE163886
3D1CCA71
BE02E169
BEA6F933
BE11D81F
BE0F0889
BCAF9EBF
BE8EE760
BEBEAAB0
BE45DD4C
BCC25072
3D1EFC7A
3D3C7608
3CE55C10
BE7AED57
3D4BD231
3DA69F06
3D8E3C53
3E694B7B
3CB6E0D2
3C280496
BD6453D2
BB8FEAC4
3C9DE8B4
3BC625EA
BCF6A93F
BD94F377
BD295747
3D89613D
3CD000C9
BC865D7D
BB851223
BD87C0F4
BD599ED8
3CE53A82
3D80D2C4
BB615012
BD1B9A5B
3BA9A3D3
BD3EA4EC
3DA650E7
BB320FB2
3D0F6AD7
BCA40746
3DA213A1
3D9F66E8
3CCFD2A6
3BB966BE
3D0C6C55
BD348B22
3D73B85F
3D1EB420
3DBF23CD
3D029281
BE059B80
BE33BAFE
3D30BE0E
BD3F8551
BCA3EC03
BDB8DA3C
3CCF7879
3A630447
BC762B6B
BD6E4B02
3CF51698
3D4727DD
3DC60FE4
BD654D62
BDF3825E
BCF0C133
BD1BDA51
3DA0713F
3DB95D4F
BDB9AAE7
BD3F5621
BDB3EC46
BC634763
BC8C08B7
BD177D95
BD6DBE7F
3CD106EE
BD21CCD9
3CC98809
3D581388
3DC88E7A
3C33E575
3D8D8559
BDC02C0A
3D1BAF53
3DEBC515
3DF50D28
BE08F29D
BD9822BC
BDCCF180
3D558644
BC2D9275
BD7B9496
3D3BC5DF
3D8FA377
3D9C5CDD
3D365343
3D74C09C
3D0E5711
BAACC0BE
BD4508B3
3D70941D
3E2C447C
BE17D567
3BF0BF1A
BC453B08
3E614163
3D1EF848
BD981388
BD740A28
BE035AC9
3D6ECD08
3DE76966
BCD4A3C6
3C55A9EB
BE20F063
BD7E7297
3C650C5F
3C4EB789
BE005815
BB9949E9
BD6045BB
BE2EF0AE
BE06861F
BD0114D3
3E6876E2
BD4943E1
3D400325
3D34E54F
3E0A32B1
3EA88723
3D921577
3E2533B1
3DEFD545
3E5FCAC9
3E043A21
BD3FF9B5
3E423077
BCFB86F4
BD919F80
3CC71B48
BE302321
BE37C632
BC8383AE
BE45EAAB
3D07DD44
3C74E011
BD36B096
BE0E9EA1
BDECC682
BE09AAE7
BD959EE9
3CAA1D75
BDF7B0F7
BA882F0E
BE375D57
BD843A21
3DB549F9
BDB4F7A9
3EA09CC3
BE2F2B24
BE831AB1
BE16F60E
3DA69F8C
3E9002C1
BD44B902
3DB0F94D
3D578C43
BCB9E6AC
BDE883FD
3D014728
3D9FBB51
3DE88A48
BDA74C90
BD9546D4
3E1736CE
3D85E02F
BD151C5C
3CCDCCA7
BD84A277
3E361F9F
BD9F2D3C
3D877681
BD941FA7
3D4D844D
3E122BBF
BD788FC9
BE25AEA3
BE8D3650
BE410DBF
BDE1B5C8
BD8922D9
3D958B82
BA8461FA
BD8FF434
BCDD65A1
BE077708
3BA36199
B90A697B
BDAAB368
BC9183B6
BDD2DA98
BCDE3FBC
BC598BF8
BDA7D2C8
3E03CAFB
BD9CEE18
3CBBECAB
3E0D7A9A
3DB7C6FC
3E2D9BA2
BE0A6B51
BDDCEFAA
3CE5D9E4
3DCF2F12
3BE4EAD1
BC86EE31
BD7CEE9E
BD35AEA3
BD950764
3DD3C9AC
3DB3E143
BCCDEC1C
BE4F23CD
BCA8A611
3E82BCF9
3EC69E3D
BB8626F6
BE575643
3DCB4FA5
3DFEDD05
3E006D50
BE084D77
BE4A8651
BDB8E5C5
3DD76684
3DBEA24D
BE0A31A5
BEB3606B
BE7EB420
3DC85FD0
3E6192EA
3DC11905
BCBA7DAA
3DDD4CFD
BD84C2F8
BD81A0CF
3E3C16DF
3DAB13E0
3E6C903F
BDD96D8F
BDED423E
3AE68E3F
3D9A8CDF
3E2B5393
3E67B0F7
BE05C6C1
BD0B09EA
BE6FD827
BDB378EE
3F1459C9
3E77264A
3E5E44FA
3D4D1202
BD2C12AE
3D3CDEE3
3CFCD467
BD11A976
BD34CA0C
3D561A1E
BBA10E02
BD023B79
BCF9CE8E
3CC408D9
BD1C9603
BDA6D699
BE82146A
BD86FEF8
3D8978D5
BD353C58
BC718CA0
BE648345
BDB881A1
3DDC53F4
3D1C0A8D
BB7765FE
3D7CCF29
3C1756C9
BE08EDE5
BB4F5B1D
BD2F9980
3BDD93C4
3B028C37
BD4959E6
BDA1F42C
3DAE2542
3C08094E
BD9989DF
3D873040
BD6A93F3
3CBF1C76
3DA09678
BCAC753E
3D7250B5
3C8B9991
3CF22186
3B3252CE
BA5C3372
BB8FB86F
3DEC4370
BDDCE5B4
BCA88CE7
3DA65ADE
BDB8A3B5
BD607A29
3E6FC979
3EB24420
3E0D5886
3E29374C
3D18D584
3CC71D60
BC67BC3C
3E372B45
3E974795
3D58FE69
3CD6B65B
BE3298CC
BC8DB6A2
3CCA361A
3CE6149C
3E0DC550
3E0D70E7
3E34F766
BD205250
BE6B28D8
3E1F0E0B
3E2E3A3B
3C9D7BA6
BD8CBE1F
BE5DA87A
BD33A9B0
BCB9E493
3C38D3F2
3DB044F2
3D98811B
3B64430B
BD94EDB3
3CAE1EF7
3D9D0397
3D032874
BCBE7297
BDA785B6
BC78BDEC
3D704AB6
BC8BC383
3DC16378
BDE79896
BDBB23DD
BD58DAC2
BD5C4439
BE037479
3E0A1A0D
3DBED7C7
BCBEB181
3C2E5FFA
3B4985F0
BCBE4CD7
BD43A323
3CD0D499
BCB4BB5E
3E15857B
BB373D19
3D8F1023
BDA7A850
3DB5AAF8
3D8E8FB0
3D8FF866
BD7E35C6
BC837931
BD3636F4
3DA936C6
3DAC0054
BD84E50C
BD3A0408
BDC029F1
BE12C882
BB8D10F5
3D833BDA
BC7C9364
3D2046C7
BDB3F530
BE4BCADA
BD3CB1CD
BE27D73D
BE6D6E05
BE97E804
BEBFC0B1
BE5F2346
BDC27200
BE715B57
BE92511A
BE5F0069
3D6D362F
BD9736CE
3AD62BF1
BED8C47A
BF0B2DB2
BE486BDF
BC8EFDCA
3E982C2C
BCB61998
BDAC3DAB
BE50079A
3E134C1B
3E8CC815
BDCAAFBC
BC81908E
3DBA3EC0
3E2FA227
3D6008EA
BE5C3B92
BD89FE87
3EC4BAD8
3C8DED29
BD09CB25
BEA91B82
3D6F62FA
3E9FDF3B
BE4AC190
BDF2D6ED
BED99DED
3C073FFB
BE36644E
BEADC854
BE4C764B
BD903C08
3D0FD2A6
3D11EC92
BE9B5E74
BD6339C1
3D790EAA
3A50EDC4
3D9B4C3C
3E0E63E9
3BB5FE54
3A2D46F6
BE06933A
3D61847F
3E8B06A3
3D262132
3D2FF3AE
BDF0F063
3D13CFF6
3E4B078E
3C74666F
3B427200
3D111383
3DD4E098
BC66106B
BCDD6E05
BE419EB6
3D539C95
3C69424E
BD16ADF7
BD0858FF
BCF1ED18
3CF8D930
BD849D39
BC97A67A
BD5DC832
BDB5E17E
3CA94BBE
BE3BB40B
BDC049ED
BCE9856A
BDB63F57
BD6D7B63
BE286163
BD0C88A4
3D4E0EB6
BC36390D
3C849A99
BDB8A8F4
3D391D58
3DE04F2B
3CAD362F
BE139C0F
BE20B392
BD4B0186
BD97F8CB
3CE2F380
BD2E264E
BC6E2867
3C3ABEAD
BD63AB00
BD612839
BBA5A46A
BDAC73AC
BCA6655A
BC9D3AA3
3D478961
BC5A554C
3C77BE12
3D35F2CB
BD91287C
3DC07EE1
3C9E4713
BD6031CF
3C99A416
3D229521
3D3C3B4F
3D2D7E89
BD187B57
BDCEA423
3D219653
3C769446
3E5A1CEF
3E4A337B
BDA738A4
BE0D92B8
3D71CFBC
3EE07379
3E7F78FF
3CB59147
BE0435F0
3E209C3D
3DC752DB
3E17542A
3E2EC5B0
3E66FA83
BCFD6734
3E8C6801
3D0D477C
BE496A6A
BE1F9C63
3D015C21
3EEB5DEE
3E994AD3
3C1A5226
BE7766C7
BCD4FBDB
3D0ADFF8
3D63DE61
3CC1A049
3D1220FF
3D342BB6
3D704EE8
3DA685DB
BC6685DB
BDAD67FD
BD202108
BCB866E4
3E1BB129
BBD4F590
BD1B994E
BD9355CE
BDD50225
3DDE8709
3E17B246
3D551B50
3D0BFE3B
3D18622C
BD697F20
BC8A1166
BC98FA37
3C978F69
3C7E75BC
BB1B413A
3DA054EF
BBD5AE1D
BD514B16
3BCBC05D
BDEAF1CC
3E2E7C8D
BCAF48C3
BD84D76B
BD833376
BD812A52
BC464346
3D1A9110
3E13992D
3D9470EB
BD67620F
BDE7CC7D
3BF5C28F
3D947B67
BD4563ED
BC8AD688
3B2B3EDE
BDDC2F40
3D37D0F2
BD375EA6
BDB74C4D
BD1CB146
3C092253
3E175643
3C9C3EFB
BDBDD1A2
3DDB3D08
BD2160D9
3DAD306A
3D03E100
BCC4FE37
BA9331A1
3BCA7935
BDA61D00
3D5F83BE
3C7E8251
3C654717
3BE6AFCD
BE1034B1
BC78D717
3D124F22
BD839B45
BC0919F0
3E1217D3
3DC4FEBD
3C27AC82
BADE2AC3
3C95831F
3D66351E
BDABE9C9
3D408744
BE3593A3
BB1F9485
BE5E28ED
3DB6B767
3DDDEE78
BE1662FE
BE005A71
BCDA4CE8
3EAC1227
3DF82B1F
BD936CDF
BE014E3C
3E443AEB
BD8E22A3
BC35F5F1
BE1A62AA
BDE5CF68
3E414728
3E39806F
BE6B77C0
BE80AD25
BE58E326
3EB3F8BA
BDCE9C45
BED27243
BE339A7C
BE00E347
3E8F192F
3E3317F0
BC7BB949
BDD4306E
3DFE3327
3E5C55C9
BBFB8F58
3E73FD50
3EC8110A
3EAF4363
BEDD0FE9
BE819781
3E219C9D
3EBB5D89
3E8223E2
3E2767D3
BCD55C53
3D7B938A
BCBD1676
BCF42353
3D999DCB
BDD650A4
BDB76E61
3DD59924
BD872863
3DDA4E7B
BDF0B30B
BDEE8965
3C9A0CF2
BDFB70EF
3CE0114D
BDFD8C6D
BE10C847
BDE1F9F0
BE1CBB3D
3D69D40F
3D638327
BD00F66A
3D69F9CF
3C1CE8D9
3BA3AD19
3E32AC75
3E37D135
BD15E072
3D4F3A9B
BD705858
BE1F837B
3D98DE6E
3D967DBB
3E210D7C
BE4BA1B2
BE3F2C73
BDA04A73
3D4094E6
3D85EBB7
BE3C4CE0
BEEA7E52
BE3D7881
BE22391D
BD87B45F
BDDF2F55
BE1D527E
BE85F698
BDB5B813
BE9AC5E3
395D3FE2
3D9A6A44
BD91AB08
3D6B8E8F
BE07C287
BDA1F7D7
BD534699
BE30C34C
BDC74E23
BE280496
BE816C40
BEAFCAC9
3DA9FF0D
3E751F3F
3D7ECAAC
BE863F36
BE753719
3D1802C1
3ED31C65
3E9EF30A
BE38B6D8
BE7945FA
3C577FAE
3E186A4D
BCF3732A
BD0E0978
BC104B3C
3DD8E001
BD37D417
BDF33D29
3C8C8EEF
3E05DAF0
3E1C59FB
BE1EBBBA
BD8C508B
BD8969A1
3E108399
3C8229A6
BE09B281
3D46002A
BE9FB353
BCA5A251
BDC1AB4B
BE29463D
BDD89DF1
BCA4D09A
BD9C8084
BE801798
BE868598
BE9C3EB8
BCEAB9B2
3CA82E88
3B77CAA7
3D0BCBE6
3DFB499D
BCD83622
BD4D9A52
3CD4AA11
BE021CCE
3D9AAD60
3D97A4E8
3E11D53D
3D68448D
BDBB80AA
3C87AAEF
BE727200
3E6418D7
3D4D184C
BCC87336
BD0011D3
BDFCE315
3D615A8E
3C221EA3
3DF7CBB4
3DEA8EB4
3DF35547
BD873797
BC81797D
3E56F545
3EB40160
BE1D8BE7
BE29613D
3E0B4917
3E582907
3E91B08A
BEDF1151
BE912945
BC854CDB
3B289FC7
3D51B2E6
BF252E84
BF109F0E
BE6A77E6
BE92FB7F
BF110D39
BEC66B1E
BF25D452
BF19B9B6
BF44D8DC
BED85815
3DDA9974
BDC03AB8
3D09FF93
3D046738
3D891AFC
3A1070FC
3CD6323C
3CA7631B
3DA98FE7
3D1DB339
BD688377
3DCFF21B
BDA8FDA0
3BDCF462
BD9DF43C
BAD6B229
3DC714FD
3D8E5CD5
BC304253
BDAA209B
BD293F29
3B9F2778
3DA893B8
3D95D24A
3C097204
BD60C8CD
BE3204F3
