BD95B3E1
3E98C5A8
3E108851
BD78066C
3DCEF0AE
3E236545
BC20F4D8
3D2176DE
3D51E215
3E1A5269
BD8D6B23
3D996E9C
3D0D0DD0
BC65DE16
3D4BF6E4
3D21F080
3B9BD838
3E22FD33
BD3E1DA8
3CED3954
3E047C31
3DC41F64
BDA2EC29
3E37BFA5
BDC41C3F
BDE46067
3E3E0DAA
BD996C83
3B81882B
3E1775FB
3D93764F
BE62DA98
3DD5AB7E
BC052F7F
BE658D58
3DDB9B67
3BE1B4BB
BE401648
3E01897A
BD9CFE58
BDEAC3A8
3E36F71A
BCC5E2CE
3E263FDD
3E3B6E50
3E23AE25
BE8F4E44
3E5572DE
3CD77D95
BEA814F9
3D76D43D
3D49ABB0
BE705C89
3D99591D
BD204D12
BE9B83AE
3BA53FC0
BCA69DF9
3D11D042
3D5B024F
3D372A39
BE643676
3D6F9CA6
3CB65882
BE29B068
BC0F42FF
BC92CADE
BD35DBBA
3CC940BC
BCC5B4AB
BE22A62B
BDB6C482
BD9BF594
3E0F266C
BB78726D
BC54AE43
BD4B630B
3D0D5F9A
3CCFE9B8
3DA36C9C
BCAD794A
BBFBD274
BC987E7C
BD7F26F2
3D1B5C7D
BE16C15D
BCBA6480
3AE29F9D
BDD613D3
3D13A2E0
BDA27393
3D0CF28C
BDAC98E5
3CE49907
3D923FEE
3D158213
3DA26E54
3DA04EA5
BD7CD9A5
BD2FCDEE
3D9C914B
BB68A71E
BD555B46
3D35F0B3
BD9817B9
BDBA1C26
3D8933A0
BCEAFEE7
3D3D1783
BC949A56
BDABF983
3E111A54
BD1B20B8
BDE0FCB5
3D16616B
3D5D3459
BDA78C00
3C718CA0
BD588A05
BD683F4F
BBF3B214
3CB47842
BD19FF50
BDA14BE0
3D1E54B5
3D9F78BC
3D8B4AED
3DF5842B
3D90EA9E
3D9BB731
3E13454A
3D52DCB1
3CB63F57
3E1668C2
BDB34480
3CF3F0FE
3D8205FF
BD81FD15
BC8CCBC0
BD9EB6BF
3CC0AAEB
BD7228DD
BDC2F72B
3DA5A2D7
BC839ABF
BE043AEB
3D0C77DE
BC2C42EA
3D369A91
BC4A9AC3
3D884407
3C2497FA
3D96CC60
BD330F8C
BCC2CA15
BB9E5E24
3D0D8BA4
3D88BDA9
3DF6A594
3D39EF0F
3DAD0BB7
3D5FA11B
3C92E83A
BD4BDDBA
BD664F55
3D922963
BD87D3D4
BE2BF013
3CC8CB4B
BD22D517
BDDC12F1
BD63EC03
3CBA92A3
3CA28134
3D65742E
3E059253
3B50678C
3D86CF42
3D91C9F7
BDCB6E93
3DB83ADA
BC986B9C
BE8FB0B4
BC9841AB
3DACD5B7
BE5200C1
3D334613
3C998D04
BD68D10F
3D106573
3CB13598
BE374214
BD62D517
3CDA2728
BDA4523F
BCD8E432
BD747A5B
BDBAEAB8
BD884407
3CEF1349
BE22D3C8
3CCC76D1
BD3A7009
3C36A61A
3E26F502
3E580ED0
BE3EC072
3DBD6495
3C9F01B8
BDE2E1AC
3BDD1E54
BDE0B674
3C44B902
BDCDFE76
BDA308FF
BCCB70AC
3CFCF3DC
3E3DCDF7
3D9932D7
3DFEA897
3EAE659D
3DA310DC
3D9BBE01
3DC091C1
3D3DD873
3D24AADA
3D6F4ADC
BC068FD2
BCEF36F0
BBE64B23
3B81CB47
BD44039B
3D427957
BC9CE4A8
BCDF17BE
3E09DD3C
3DA6B93D
BD96C615
3E49C305
3DA7CAEA
BD88E369
3E028A1E
BD0FA483
BD9E73A3
3B8B3B32
BD5DB984
BD02A993
BE49C6B0
BE12656B
BD5AA92E
BE0195CD
3E34B1EE
3DC3C969
BE740E17
3E036B90
3D2E5797
3CF2A5A4
3E1CE747
BC31140A
BC4DD93C
3D30D951
BDA617C2
3D70F7BA
BE4112BA
BD516228
BF3769BA
3E21BBCF
BD348C2E
BEA94DD7
3E9779EA
BE034A45
BE9695B8
3E7CD24E
3D593F6C
BE78F191
BD718FC5
3E1A37AC
BE6609DD
BE937048
3EE29153
BE25C811
BE4024B3
3EA35504
3DDEC700
BE47179C
3EBE9814
3F17939A
BDC0D4DC
3E342B30
3EF337EB
BE8E312F
3E612F90
BDE647FE
BE4CDEE3
BC9552E3
BE2960B7
3E52FD33
BEA1A3F4
3EBF878B
3E8B63F5
BE5DBDB6
3F39246C
3EE86C87
BEBEA982
3F41CB58
3DFD5348
BDA151A4
3F5BC409
BE1187E8
3CF92AFA
3BD58C8F
3D0D1C7E
3CC1700D
3CE4B663
BCA0125A
BD0EE06E
BF0E32F4
BE0B68CF
BE38D046
BE98BC5A
BE1BE48A
BB0C60CC
BEB6AB7A
BE284A94
BD1320DA
BF0DEC70
BE0F30E8
3DC80065
3ED34B73
3E6F340D
3C304EE8
BE8A6699
BDD5DF65
BDA91E21
BECAAD1D
BE2E2542
BE7414A5
BD135222
BD8EE957
BDA4473D
BE3382A1
BE3600F3
BE11B2A2
3EC75643
3E7A02FB
3D642AED
BDB81A58
3D737543
3E4144CC
BF0A80F1
BDC42071
3D0FE47A
BEA15E5B
BD7266BA
3AD60A63
BE332053
BE1B43D9
BC901D19
3F301334
3DB21B3B
3DDF290B
3EEDE97D
3D93C3E7
3E16D224
3C39E061
3E1232D3
3D757D5B
3CE8BE2F
BC6CA687
3DBC0981
BCC6CFC8
BC87A4A5
BDEA3CEA
3E998D8B
3D4B9453
3DC86BDF
3F1E64E5
BE72C40D
3DD6B873
3EB8407D
BD87C73F
3DBF0ED4
3ED4855E
3D462A1B
3DB83CF3
3E350EFE
3E2C8A7A
3B77EC35
3C18A223
3D0F3CB4
3DA9FB61
3E0C942D
3E6369FD
3CE1A60D
BC84C6A4
3E117BD9
3DD54B8C
3D179E17
3CAB2BFE
3D8F5665
BD2E9CCB
BDEBD018
BD8BFB16
3D8F2389
BDFBADC1
BE11847F
3E91A5A9
3EA11EC9
BC5A2728
3ED88AAD
3E232A8D
3D3192EA
3EB6876E
3DCD2D45
3E527C7C
3E8C7C95
BE3DAA50
3C1042D9
3E1F89C6
BDD4C3C2
BDB4E8FB
3E8BB795
3E912839
BCAA66DC
3EB92AD8
3E5EF998
BD170C56
3E92FC26
3DC9289E
3E2C01A3
3E323CC9
BE1F3D7D
3DAF837B
3E13EB3A
BDD9D2BF
BD98A43C
3DB06DD7
3DF69A0B
BCDC8323
3D68650E
3CCA7F80
BAF57F73
3D87A52B
3DF8B934
3CA452C6
BDC719B5
BCC05F6C
3E03E426
BD9318FC
BD93F4AA
3DD39C95
BE800043
3CCFD2A6
3DA4ABE7
BE962D41
BD0A3E7D
3D873FFB
BE82EA10
BB47D1BB
3D872A7C
BE849F30
BD3E7E20
3DE74C90
BCCD26FA
3DD08F65
BBCBF2B2
BD03A96D
BD397CC4
BE509C80
3C97EBAF
3E62A51E
BD94B407
BCBFA2AD
3E464AE0
BD62595C
3D80F345
3DDA365D
3CF2EF0B
3ED2428D
BD741398
3BED99CC
3EB98E11
BDB5171E
BD3868FD
BE1E3EF3
BDF85511
3CABE8BC
3DB859C9
BE2F5F91
BE37CD46
3EA9BE2B
BE57B4E5
BE18B71C
3E954046
BE81F31F
BD90A99B
3EB5D0D9
BE564AE0
BC53415B
3DE1A262
BD87418D
3D884599
3E306424
3D305858
3E2D0D4A
3D16C1E3
BD60B3D5
3E1A13C2
BE1009B3
BD86F933
3CCB9ECF
3DD12F4D
BD0C6E6E
BE369942
3E8C9BC7
3E5C74FB
BE08066C
3E174E66
3E85F916
BD923359
3E89D8E8
3D1D55E7
BDB37543
3E55271C
3D600193
BD8878FB
3E09DDC2
3D4EFAA4
3D9905C0
BDA5CD4F
BDF50093
3B378034
BDE3369C
BDC481F5
BDF1C087
BDC99286
BD89D389
BE4F4A99
BD7D5561
3CD48238
BE478898
3DAB0AF6
BC5FACA3
3D4382A1
BCB443D4
BC7AD6CB
BC883FD5
3DD02F73
BE64BBA1
3B605469
3D942246
BE72AC32
3B2A8651
3C2B649D
BE55BB38
3D11819D
BDBB506E
BE94DD0E
3DED4F59
BDF4C4CE
BE1CA70D
BD9D230C
3E3ACFB7
BE54EF46
3D0AB1D5
3E231A8F
BE2AA194
3DCFDC16
3DFFE111
BE4F3ECD
3E19EE03
3DDB7C78
BE9F2496
3E13AA37
3D2071C5
BE4658C5
3D3924AF
3E9A274A
BE14C511
3E272E6A
3E8F29B3
BDACC0BE
3D7EEA21
3E823E7D
BDDFDE72
3DB47D80
3E34167B
BD9A493D
3A7062D4
3D259F2C
BC9ACFFA
3D96E610
3E4F598A
BC4881E4
3DCF15E8
3E380CB7
3E007747
3C82B841
3C01A9B9
3DAFCE74
3C0C32A9
BD7A98EE
3E0A24CC
3D253650
3C670C13
3DDBC44C
BCBF1A5D
3E2705C9
3D9B1290
3D1D798E
3DC3F466
3E1BACB4
3DB06035
3D6EA748
3E0ED0B3
BB7605AB
3C19B6F6
3DDD93C4
3C419C17
3E07A5F4
3E57DF1A
BBEF911D
BCA84381
BD4CC682
3E04E981
BE545BF2
BD2175D1
3D191794
BE236651
3C55F56A
BAC0CE92
BE1C4E2F
BDB47F13
3D327137
3EC36156
BE7833C6
BB931013
3EA7D391
BE209353
3D9F822C
BC9E85FD
BD11D580
3D89FD7A
3E1FDAC7
BE3CD20B
3D8B08DD
3DAD551D
BDFAA8A8
3D808180
3EB51394
BE92A8CA
3CFCD035
3E4B6FE3
BE19E1B1
BD30F063
3D9B8994
BE79817C
BCC0D4DC
3E89E3C9
BDCAD927
3D871A3B
3E683F0C
3AD130E0
3E1F0E0B
3E23BE66
BE8116EC
3D2F33CA
3E5C4E72
BD860BB3
BE382E88
3C03A10A
BB8B3B32
B8C9539C
3E924F44
BDA51655
3D7A6699
3E8F2B24
BC8FB00C
3DF14A0A
3E424F66
3CBEB9E5
3D6F4385
3E692642
3E41E81D
BE136EF8
BC98C9FB
BE200CD8
BDAA47ED
3E4BC0A0
BE2E17E3
BDA3F5F9
3E8717DF
3D84AF0C
3DAFFEB0
BE16C615
3DAD7732
3E28FD5D
3CA120E2
3CEB0D95
3D44E93E
3D38769F
BC516335
BDBDCF89
3D7A072D
3C4F9E38
BB714DB6
3E00218E
BDF8D1D9
BD95C747
3CD42C3D
BC9465E9
BCD26959
3C6FA616
BDC348F5
3A76AD71
BCD34DF0
BDFBF8BA
BDB89E77
BCC90E67
BD09EBA7
BD8CA0C3
BC003CD1
BD52849D
BD555E6C
3D689A89
BCA491B0
BCC2352F
3D501190
BDF1F688
BD566F0D
BC6DE54B
BDA7E7C0
BC369DB6
3D45F4A1
3D210E02
3D1F06F7
3DADBB5A
BD89613D
BD2B40F6
3D9F3C71
BD8CCC47
3D37A4E8
3D1F2FDC
BD28F29D
3BB0079A
BC09331A
3B8DB057
BC52E0E3
3D7F10ED
3D933D29
3CB65ECC
3B9AFE1E
3CBE8145
3D1424E6
3DDCAEA7
3CF0C565
3CD50657
BD04912A
BC6B7026
BD6FCCE2
BDB0C027
3D6C6152
BB5B5958
BDC5E3DA
BC8FF328
3D394424
BE11001D
BC2C258D
BD948238
BD7A3982
3CAA4767
3D278E19
3CC5E0B5
3DAED139
BCCF28C8
BD15E4A4
3DAEA961
BCFD9FD3
3D3B02D6
3BB2745C
3CC90E67
BE4CB189
BE9EF34D
BCF5D356
3E216E37
BE7AB96F
3D70A6FC
3E13150E
BDF3DEA4
3D868F4B
3EADCE7D
BDCA7504
BD8DE764
3DC8D5C7
BC3F8338
BC9EABBD
3AED80A1
BE9A73D6
3D5F8099
3E698B72
BE03D923
BD6A4873
3E1D8948
BCDA5333
BBE15012
3E1358F3
3CB68F08
BDD043E5
3E28CAC5
3D8FA2F0
3E07BBB6
3D462C34
BEBF928E
BDDE8039
3E0A76D9
BC49ABB0
BE463172
3E297B31
3E162281
BDACA9AC
3E55EA68
BD3DB6E5
BE4B1AF4
3D05692B
3C8B71B9
3DD20E1F
3B51E96C
BE3E742A
BD9E3FBC
BCC230FD
BD98D046
BD746562
3E7B3EDE
3C1ED7C7
3CEA7CE1
3DB749AE
BD1A554C
BC7AB53D
BE8B0CED
BE210A9A
3C25D28D
BDFAB53D
BBA42AED
BD9FC548
BC98F3ED
BE52F017
BDF94D94
3E83A216
BD845C36
BDD93FF2
3E0BEDFA
BDA6ED24
3D88C048
BE94BD98
BDF9591D
3D2D9275
BC3DAD75
3B4E1C58
3D0534BD
BD166384
BDC7CD8A
3D326BF8
3CCFB763
BD98AE32
3D881DC1
3DB8E8EA
BDF27BB3
3D9B2032
3E5E4324
3B694EE4
BD8A2B17
3DE1E604
BD07FBAD
3CF15832
BD5CAD15
BE2B9D3D
3D13F4AA
3E549774
BE32C5A0
3D69E2BD
BD6EDFE7
BD56861F
3DCD98BF
3B78B589
BD2DC6E3
BC1802C1
BCE277C4
BCA6809D
3CF64064
BDBECDD1
BDC346DC
3D7E718B
BCC9081C
3D5C2B0F
3E05A9EB
3CC9D389
3D27685A
3E0759AB
BCE51090
3D592FB2
3CA1815A
BD9A7653
BD664B23
3CD96638
BE2F3DC0
BDA74D9C
3C54F15E
BD895076
3D94488C
3DC3BABA
BC2F9229
3D1AB6D0
3D8E3476
3DCE3B47
3DDC28F6
3D65625A
3D551612
3DCCF5B2
BDCFB092
BE1CAE21
BE005D96
3CA450AD
BDC99BF6
3D799C39
BA3BB1F2
BE4791C5
3D22F8BE
3D10A45D
3B0FEAC4
3D0C4370
3E087B9A
BD267B5F
3D8BB01D
3BDDF86E
BCD2D235
BD19C5A4
BC9A2E7F
BE4EA20A
3E6A4D2B
BCFC6DA4
BE360E95
3E6A6E76
3CE03D57
BC8C1DB0
3E534A88
BC9F0C35
BE1B5287
3E8591AC
3D64FFC9
BC083FD5
3DA5AAB4
3E0C92DE
3D783383
3EB8A97A
3C8CED4E
BC97CA21
3EC9B457
3D8CF95D
3DB5464E
3E8D41D9
3C1841AB
3C8C9321
3E1DD69D
3D15182B
3DCA4F44
3E0183F9
3D8FAC60
3D3F52FC
3E872E6A
3D5FEFBF
BD1B9F99
3E1A0169
BC622E5E
3CF20429
3DE3EFAE
BAE34763
BD5BD72C
3CA8D866
3D8E05CD
3D987725
3CB87DF6
3DAF1455
3CA467BE
3E77503C
BC83CD14
3CE37586
BCAD42C4
3DBF47FA
3C3E2718
BE095EE1
3D70A1BE
BD2B7BAF
BE88281C
3DC85F4A
3DF6D762
BE0AD3A6
BC4AD9AE
3C80A17B
3E233EFF
BDAAC3A8
3DE90EED
BDC8FDA0
BCED84D3
3E262BF1
BE2C5005
BC63193F
3AF605AB
BE3C7043
BD5E8D54
3DF87A4A
BD3AF859
3C9F5169
BCE3326A
BBE7DDCA
3D7BDDFD
BE41116B
BCADF0D4
BD0AB713
BE9087EC
3B6C636B
3AD4562E
BE881A9C
3E0EC99F
BCE27BF6
BDEA4F44
3E320D56
3D68EE6C
3E2C4439
3D00A5AD
BCDEEFE5
BDCCDA6E
3DEC0054
BD336588
BE87A1C2
3CE46F15
BDB06706
BEB65908
3DFF20A7
BC8FCF81
BE6A2489
3E6580C3
BD8AB9B2
3D45A922
3DDFFC54
BC619B91
BDA47A18
3D66C5D2
3DD15832
BE323077
BDB4384C
3D00E5A3
BE01AFC0
BDAFDC16
3DA0D6F5
BD63EF28
3DBF8445
3D823D92
3DA94B38
BD6E2110
3D3D4AE4
3D4D77B8
3D330A4E
3D15B899
3D239820
3DD7507F
BD38EE28
3E12DCB1
3E433F42
BC70C77E
3DA14941
3D9B54A0
3CB0EA18
3E451EFB
BE0617C2
BD3A0E84
3E84636B
3E2487FD
BDBB8BAC
3E56C58F
3E0F5B1D
BD92AB69
3DB83276
3D4E4218
BD8BE511
BD082492
BD1F8D2E
3B5099E1
3CD92D99
BD635936
3D276641
BD2E5365
3D3E8FF3
BCFF8445
BE42934B
3AD92FB2
3A102DE0
BCFBF402
BC1420B4
3D6CA149
3D83BF72
3B99E94B
3D5289DB
BDDA9974
BD64FEBD
BC4A361A
3D540BBB
BDD93BC1
BD06E2A8
BDE958DA
3E0045BB
3CD753A4
BB9D8C6D
3E4DBB5A
BD6D2568
BCBC9258
3DF231C6
BDD55E6C
BD372A39
3DAA087D
3C99D239
3CB9D1B3
BD9BD945
3D127914
BE03DA73
3D8E7579
3D0AF70A
3CE0114D
3D0B48D4
3BD63CB8
3D243138
3E005F6C
BD4CA2DB
3D510A13
3C96659D
3AB6B6E1
3DA9613D
BADC768E
BD4BD662
3B54BAD8
3C93B9F1
3C99D66B
3D6CA149
3DEDC1A4
BBB85A4F
3D80DAA1
BD96E0D2
BB574928
3E165669
BD0BCADA
BD66106B
3D40EF13
BD66D8B2
BDD17F84
BD9A5333
BD9442C8
BE0AD70E
BC746AA1
BCE277C4
BD82CC2D
BD0B48D4
BE298B2F
BCCEC41E
3E696638
BE368167
3CD92104
3DAB2208
BDB2AA5C
BD25A35D
3C113A50
BCC5C572
3D218698
3DDD1B2E
BCCE0DAA
3C30574B
BD9790FB
BDD8ADAC
3D5028A2
BEB5A986
BDA19115
BC196745
BED69596
3E12702A
3D7E1DA8
BE869FAE
3DDCC964
3D5F127F
3E02C6AC
BE4E392E
3CB15B57
BDC51655
BE0FC697
3CCFA69C
BEB5D096
BD96C2F0
3AE820E6
BED94984
3E110668
3D6C6CDB
BEDEFB6E
3E0DF8B1
BD6D03DA
BDA11905
BE1DBFCF
BCBA2596
BE49C23B
BE1CDD51
3D9D45A6
BE8FFE6D
BD230015
BD56B873
BE81856A
3E2034F4
BE10F734
BE64DF05
3D64A490
3D5B8887
BE23419E
BCFBC3C6
3D5182AA
BE9B0681
BDEFA051
BCDBAF53
BEA15FCC
3DEF8A4C
BE30C954
BEA9159C
3C3AB218
BDAA8651
BDF9EA57
3D9CB791
BD0A0903
BD930BE1
3E330271
BCB88440
BE91FF71
3DB4DDF8
BDE5A9A8
BE83EEA2
BC356324
BE4BA27B
BE31B3F2
3CC8259E
BDC5100A
3D90B73D
3DC9B62C
3CEC1E36
3C76555C
BD2E85BA
3E0CB817
BF1243AA
BE8B7C35
BC8283D3
BF0ABE7B
BE7D4AE4
BDEC2BD8
BEBDDEDF
BD709FA5
3C5B5526
BE530596
BE0FB5D0
3E05BCCB
BEBEBA49
BE0BC4D2
3DD389B5
BEFA0297
3D3A4724
BCFA80D0
BEE2B9B2
BE13AFFB
3C605037
BE810ABB
BDE604E2
BD93FEA0
3CFA8501
3C431594
BE636545
3E7B10BA
3BF251C2
BDB27807
3DEB4FA5
3EAC063A
3CCDEA03
3E717FC7
3EA67FB2
BCBF65DC
3E8B7543
3C406184
BDAC09C4
3F33F844
BC662132
BE03AC0C
3F169521
BE5854CE
BE117A46
3ED2BD7F
3E5632C2
BE5D61F6
3F3E1805
3E8A2C88
BE10FECE
3F77F67F
3E699525
BD26E115
3F3E9DB6
BE72F6A5
3D46DA45
3E71A198
BEAE0243
BBE02A78
3EBECBDA
3DA007DD
BE098EDA
3F183C5C
3E37CF5F
BCFC0097
3F4BF76A
BDE5B0FF
BD1C304D
3EF1E322
BE94E52E
3D432DB2
BA1246BF
BDC1626B
3D1858BC
BC88919F
BD464CB6
3DDF36AC
3E843FC4
BDE3EB7D
3E619F3C
3D251D26
BE1650E7
3E2AD9AE
BE2CC3A0
BDE71DE7
3DD3647C
BE7ABF34
BE16C722
3D5BFF04
BE542EDC
BDF020C5
3E07BFA5
3E9BB59E
BD921C47
3E323E5C
BD3352A8
BDE23D92
BACEF673
BD4E63A6
BD40DA1B
BD8A7B4E
BDD0BC7B
3DE87B14
BDB3D189
BE039D1B
3D00F451
3CFAF20F
3DB2495E
BD3F61AA
3D139219
BE40AE53
3D87C4A0
BD55043E
3CBD2956
3D0E3044
BD11A438
3E437154
BD38A7E7
BD7B0F6B
3DC7B353
BD8D3177
3DE122FB
BDDADAFD
3E2B76B4
3DA1C79B
3CE429E1
3E01BE2B
3C252264
3DA07C42
3D120D13
BD56733F
3E9A9C78
BE06B8FA
3CBA493D
3E60E7FF
BE5AC797
3D90A02C
3D89A4DF
3E80AB50
3C998D04
BD5E0D67
3D96744B
BE34A1F1
BD875361
BE375AB8
BD7BB1F2
BE26C58F
BE9C2F1F
3D794424
3D3EAD4F
BE5A52F0
BC7BA01F
39EBEDFA
3CB2EBE6
BB8C825A
3E3F61ED
3D9522A7
BC2615A9
3E63EC46
3E1AF07C
BDC4A383
3E151F3F
3E290929
BDA7FAA0
3E514AD3
3E18E68E
BDEBF551
3E495853
3E35A46A
BD737EB3
BD09A77E
3BD716D3
BD829B6B
BCC5A815
BCCC7086
BC1DECE5
BE4C38B0
BE2D2136
3D446845
BDBCC426
BD832CA5
BCAC1D2A
3D4E8FB0
3D2E642C
BD4E789E
3DE9795B
BD9BE6E6
3CB358F3
3C751698
BE4250F8
BCDB9A5B
BE288B54
BE64C9C9
3E236695
BE746E09
BE2EAE9F
3C248302
3DD2D0A2
BDE234A8
BC405D53
3E0DBA91
BDD1C194
3D516B98
3D7DC487
BD9BE660
3CC22EE4
BE27A744
BD8D5843
3C2EAFAB
BDDAA609
BD99ED7C
BD0BA626
3D957796
BE1C60CC
3D49FB61
3EAABDA1
3CFF1306
3DFE0935
3E86FD44
BCDFE75C
3C5CB146
3CC3675E
3D7A3337
BC071609
3B9EFD87
3DDE4A38
BD76837F
3E11BA3D
BD6AB25B
BC6147AE
3D26B93D
BC82773E
BB701FB8
3E039607
3CD7C6FC
BD0A3A4B
3E52E8C0
3D2109D0
3D39EF0F
3E4FC009
BD3A6CE3
3DC7136A
3E106317
BDD37111
3E077F6B
3B5FACA3
BDA32A06
BC7950B9
3CDA469D
BC2EC8D6
BD9E2DE8
3D343201
3DDA8049
BDBFB939
3D6BEF07
BCD7CF5F
3D1C0443
3E0D7B20
BDCC111B
3DA88F86
3D4F3FD9
BA77B9E0
3D06BDF5
BED280AE
3D31C53F
3CFAC81D
BEA5119D
3DA6559F
3D05A815
BEB0722A
3DAAEB81
BD8D6239
BE64AA11
3E1D59D5
BD60C8CD
3D1FCF3E
3DF380CB
3E35D851
BEF5DEDF
3DA2E771
3E447F56
BF031C65
3E31098D
3E06C69B
BF163C10
3E882257
BCFDA837
BEC4F616
3E16ED24
BDC8EBCC
BE30CCFF
3DA7485E
3E455B03
BE78F8E8
3E44FC61
3C8FE261
BE522D0E
3E48DD61
BC82D59D
BE47A2CF
3E4682F9
3C43E74B
BE847A18
3E742BB6
BD01CB47
BE908894
3D217A03
BCCA1F08
BCFDD228
3C1185CF
BE0E49F5
BDBC8FB8
BE0348F5
BE2F47FA
BE4DEA46
BD84399B
BC9DE69B
BDE72C0E
BD49E668
3C227286
BE5C66D3
3E1A33BE
BDC4D8FD
3D031F04
3E877597
BCA10BE9
BE37AE9B
BE9E9F6B
BDD0FB65
BEF4A9AC
BE63EC46
BD1E529C
BF1CCC8A
3DB45B6C
BD42E771
BF35E0B5
3EB86035
BB5FCE31
BDC2B735
3EE49F51
3E04228A
BE2CC6C5
BE19DDC2
3D269BE1
BF0BEC57
BD92189C
3DE6C43F
BF3A71BD
B96496EE
3CB239A4
BF1CF7DB
3E98811B
3C29EF52
BE7A48B6
3EE4A559
3E1BC383
BE32684D
3BFAD6CB
3DB9D1B3
BF0EC5C1
BCE85DB7
BD5DCC64
BF5C3255
BD92B90A
BDE5F7C6
BF4AF70A
3E81C4DB
BDEC3B92
BEF38477
3E3E27E1
3E32131B
3E009310
3DF4B381
3E64E768
BE01A7A0
BD417657
3DF79421
BE6A4591
BE1290EF
BD41376D
BEEBEB3A
BD9AF3A1
3C004966
BE553869
BD993B3A
3CE3E4AC
3D11A976
3D44EC63
BD0112BA
BDF68273
BD5B5526
3D898C3B
BE3931CA
BE092685
3DFDA05A
BDF9FC2B
BD2806AF
3CC2F406
BE3CF3DC
BD90795F
BC3530CF
BDD94185
BC9DE050
BE1D14E4
3E2039EF
3DA16B55
BE11D0C8
3E0D156A
3D93FF26
BDD466F5
3E2C6C55
3DF95571
BD4255B0
3E335116
3DC41F64
3D9AE600
3DB94424
3D500714
BD40FA9C
3DA1DDA0
BCAC83ED
BDBBE660
3DE660A2
3C760179
BDB697F2
3E9EEC18
3DAC4B4D
BBE820E6
3EA0BDCB
3DD77AF6
3D7A7009
3E4FACA3
3D5B4784
BD0BF7F0
BD5DC1E8
BD653FC0
BDAA91DA
BE3485A1
3DEC2720
BD3FBDF1
3BF23034
3DCDFEFC
3A373D19
3D330835
3E228134
BCC2480F
3D6C4934
3DE80304
3D903105
3BEE17A0
3DA163FE
BD07021D
BE31461B
3D3CC294
3CA2F6A5
BE2121EE
3D75B2D5
3D8D15AD
BD271CDA
3CAF7F4A
3DBC9F73
BD8FBF40
3D3586CB
BCA50B52
3C10C910
3BF672B9
3C60EF9A
BD597A25
BC9A2C67
BC6D9DFE
BDB0520D
BE2EBE59
3D3B59DE
BE112770
BDE2845A
3D94E875
BE84A234
BDFB9E06
3D2237CE
BE2C68EC
BDA2B628
BD73354C
3D90AEDA
BBB5AA71
BC15896A
3B24D2B3
3CA10386
BB03FD50
BCCAB3EE
BD844F1A
3CAF2303
BD8A31E8
3D0067CF
BB04E832
BD4CC682
BD1D0B74
BDD4FACE
BC497529
3DABCADA
BDE6223E
3D5016CE
3D7FE8EE
BD897529
3B434C1B
3DAB0FAE
BDE70C13
3D416590
3DD1B9B6
BDADCB14
3BB777D1
3DE7FD3F
3C5627BF
BE45A533
3CE1B2A2
BE04F7A9
BDEFBA88
3E291C4C
BD69E2BD
BB0CB4AF
3E426890
BD8BC16A
3DD4F616
3E1EE393
BA9C3CE2
3DC93B7E
3D4E5D5B
BCC1AEF7
3B33A259
3D6683C3
BDA601BD
BDB68598
3C962281
BDC1040C
3DD594F2
3D04B1AB
BDD872F3
3E17689D
3D2A26E5
BD588A05
3DA53869
BCDD67BA
BD224CC7
3D34B945
3D1C3CE2
3BACA793
3DA53544
BE7027D9
BDAB020C
3E6CD573
BE825E35
BE530A91
3C8E7792
BDC5A1CB
BDD55D5F
BD406078
3C1A1FD1
BCD54DA5
BE531CEB
3DADE6DE
BB42C5E3
3E895DD5
BE1DE82D
3C365A9B
3E521D97
BD6C8C50
BEA80FFE
3DEE2542
3E7E2E2C
BE4302F7
BDC9CC32
3E9F52DB
BDC5FC7E
BEA61566
3E0F7C24
BE0FCE74
3E94317B
BDB526D9
3C5349BF
3E31DCD7
3E1259E2
BE1FDC9C
3E105C03
3E5187A5
BD8CCEE6
BE4B8FDE
3EC4C6E7
BE1CC9EB
BECEBACF
3D5B6E50
BD830CAA
3E4E5A36
3E377DD8
BBCA0C28
3EC2E903
BDD2A066
BDBA133C
BE5A9692
3E903AFB
BDC78F26
BE9C382A
3CDFD47C
3E10E347
BECAEBC4
BE3769A9
3E3EA0FD
3DEC9FB6
3E37DD87
3E030E3D
3DDFF690
BDC323BC
3E3A4229
3DC0B88D
3E299FA1
3BCB31C2
BC79E386
BE65DFEC
3E8D6627
BE1B6FE3
BE33ADE2
3C2E7925
3D0BD988
BD07496B
3C46A7F0
BD9DF3B6
3DD85CEE
3C4CC89B
BD9486F0
3E1C0725
BD3FE197
BD7E8039
3DD92D13
BD3136A4
BD7D017E
3E2A6F3F
BCB5D24A
3D090D5A
3E22ADC5
BB2EFB2B
3E4E236C
3E0CED91
BD9C2E34
3E3D0BFA
3E688334
BD6A8A83
3DA9FC6E
3E765BEA
BCFEF7C2
3D837A3E
3E86D2ED
3D51F601
BCEED677
3E0A12B6
3CF1800A
3E0E8E1D
3A7ECDD1
3B894C44
3E658362
3C27EF9E
3D71183B
3E3358B0
3B9CC31A
3C6AF252
3E2FB7A6
3D14A4D3
3D50EA9E
3DEBDA0E
3E05EEDD
3C2E8188
3D9588E3
BE1D377E
BD25DE16
3CBFFAC2
BE8BC340
3D839714
3DD3A57F
BE925F85
BC880735
3E4E7AFA
BE2E9A70
3A3178B3
3E1C254A
3CAC2374
BCC98C3B
BE1D05AF
BDD583A5
BC76A0DC
BE3B3461
BE778FAC
BDCBE8BC
BE6BEA92
BE77BEDB
3D1BCCAF
BE44EF03
BE7D0397
BCD019F4
3C89CC32
BE0761CC
3C4DC875
3D1F2346
3D243CC0
BD153CDE
BD86BE7B
3D44E93E
BD7823C8
BD24CA4F
3D4203E6
BB8461FA
B8EAE18B
BD7F0564
3DC342AB
BC184A0E
3C7F25E5
3DFA0F0A
3D89D94D
3C9E1F3A
BD833E79
BD1054AC
BD2C4502
3CD3B8E5
BDEE368F
BD012F0A
3D88472C
BD5E9C02
BD34B620
3D1E41D5
3C8DA7F4
3DDEDE98
BC8B45AE
3DFFEF39
3D67A41E
BD95115A
BD810731
3D63F24E
BCD16335
BC9FFF7A
3DEB95E6
BDC75D57
BC838E2A
3E0D4563
BDF0E0A8
3D52D773
3D31E8E6
BDDF5621
3D20157F
BA5173FB
3D68F4B6
BDF612C7
BD0A979E
3E1C300A
BC8A6330
BB79F44D
3DB74928
BD7AA9B5
BD572EF1
3DF4141F
BD13AB43
BCDEEBB3
3DF82F51
3D867B5F
3DF3604A
3E183DFF
BEAA8C7A
3E16CF42
3E013D32
BEB2CB43
3E1263D8
3D32DA12
BDA41355
3DECB103
BCB19A41
3E37F3CF
3E86DBF9
BCEA2B17
3E5B380D
3D5323FF
BB1DADFB
3D289CA2
BA1BB6AA
BDCDC875
3E559FF5
3CE09DD0
BD91FB40
3E46F545
3D29AD43
BDA62670
BE01ECD5
3E425FE9
BDE01D5C
BEF836A8
3E2D4995
3CD8D36B
BF04C1DB
3C727FE5
3CBDEA46
3E25F7C6
BC4EAF25
3E0C6541
BC88E150
3AE29F9D
3DA051CA
BE7ADB40
BC00A5AD
3E02A412
BEC96180
3C4C6C55
3CA2F05A
BE4549F9
3D295D92
BE1EC9E2
BDD645A2
3DDE15CA
BE374C0A
BE7D5AE2
3EA012E0
BE46ADB4
BEA71A1A
3E81C5A4
BE4B35B1
BECF74CD
3E84432D
BE85058E
BE8FF8A9
3DDF6DB9
3D58127B
3D0C33B5
BE09B0AB
3E56C7A8
BD3A92A3
3D575E20
3E718937
BD9CD24E
BD7AFA72
3E51F3E9
BEBFCF1C
BE1E004B
3D07A28C
BF0C9A35
BD39AE0C
3E159AFA
BD8896DD
3E410731
3E66C26A
BE196E59
3E78826B
3DE0AAEB
BE22D40B
3E81EB20
3E344285
BE111CF3
3E990774
3D876FB1
BD08C719
3E7B24EA
BD2A92E6
3CD19158
BD0F4F94
3DE8ECD9
BDA43809
3D662ED3
BCBEAB36
BD0ED5F1
BE08B4C0
BD761459
3D728F9F
BE414FCE
3DB6B65B
3E1A5D29
BE1FC82A
3E2DE58E
3DCCBFB1
BD8DE093
BCA0BE51
BDEBF338
BCB35B0C
BD04A72F
3E8D18D2
BE5C4C16
BC132D6F
3E4C7B03
BE1600B0
3D279BBB
3D2960B7
3CB52008
BD28027E
3E48B370
BC048BEB
3CD3DA73
3E695853
BCAA8A83
3CAAF790
3E7E0547
BDE84381
3CBE24FF
3D868DB9
BD9311A5
BD57E77D
BEDE8DFC
BDC5BAF5
3D57B635
3E057604
BE3A1A93
BCDDE376
BCE5D7CB
BE9A6CC2
BD574F72
BD8F7FD0
BD7558A7
BD6F0E0B
BDE366D8
3D7D9125
BDF4C09C
BEA10C2C
BE54A6EC
3D82F273
BB4A8199
3DD8BE73
3D62120E
BE527C39
BE41CE6C
BE5CBFB1
BE27BDCF
BDD77293
BE9F4257
BE2737DA
3D2CFFA8
BE3337EB
BE7E379B
3E2CE13F
3E83A040
3C541B76
3DDC9FF9
3D0D4563
3CD905C0
3D3912DC
BD90203E
BDB83A54
BD2E6213
BD64FEBD
BDE4217D
BD5220FF
BD425E14
3D96640A
3C4B039F
BDDF8D2E
3DA23077
3DF797CC
BDFBDD76
3E55A9EB
3E7F340D
BCE9057D
BE63E575
BE8AF9EC
BCC2E558
BE87BC5E
BE328B6E
3CC1A47B
BE58A223
BA99BF59
BDE35E74
BE79AD86
3E091A33
BDCA48F9
BDC070B9
3E7F5DFF
3C39A177
BE8FB41C
BE5A2984
BC8522EA
BD7F5E85
BE4CC07B
3D1C5E70
BE5CEBBC
BB86BDF5
BD699A63
BEA06AF4
BBA8C9B8
BDED6F54
BE3EF135
3E2A7AC8
3D1B4DCF
BE1DEC5F
BE0DF330
3D9816AD
BDE9667B
BE49E7B8
3DAD477C
BD439CD8
BB4DB7AE
3DBC8B00
3DFB9D80
BE15C7CE
BB7CF80E
BA95D0B7
BD4FC82A
BBBC48F1
BE5FC760
BD364E05
BDBD7E46
BDA277C4
BCF166E0
BD51904B
BBA52696
3D9014B6
BB13FAF4
3DEA1F8E
BD0C33B5
3C84DB9C
3DA79570
3B4FBFC6
BBA7BD49
3D309C80
3D3B3FA7
3E21D10B
BDBFAE36
BE4A61E1
3DB1044F
BE05FE11
BE40C4DF
3D3F51F0
BE0A237D
BD4ED0B3
3C960B70
BE2290EF
3DBF70DF
BCFFED20
3D1DFEB9
3B541312
3D8BB774
3CB358F3
BDAF29D4
3D4E4431
BE47D88C
BCAE924F
3D56B54E
BE1AA194
3E1424E6
BDAB3FEA
BDDCEC85
3E29C737
BE0F44D4
3E5B762E
3E072FFD
3D22E5DE
BD85EDD0
3D07D2C8
BD879464
BE5C78EA
3DDFEF39
BD3D0AEE
BD9CFC40
3E218223
3BDD82FD
3C519589
3E0F4342
3D033A47
3E7CDDD7
3E209A67
BE024B34
BC98EFBB
3DA096FF
BD893AF7
3C14E5D6
3E282279
BD35AFB0
3D3D47BF
3DD0CF5B
3D11B717
3D7419E3
3E4CAF2D
3E1AFC48
3E0A469D
3DF27F5F
BCA3315D
3D5FDBD3
BE065237
BD880BED
3E5882F1
BDE6DA45
BD8D0E56
3EA63CDA
BD27210C
3C0298CC
3E93AF10
3D47BAAA
BC5FACA3
3E8034B1
3DEE89EC
BC43B928
BD036C9C
3A16BB99
BDAD3E92
3D8448CF
BE0725C4
BD669BE1
BD519158
BE6543AF
3D849D39
BD932B56
BE45681F
3D92ACFB
BDF54F37
BD60AFA3
BD9AB431
BE081E04
3C90EED0
BDAE8640
3D913D75
BDB3732A
BD8FD652
BD479E5A
BE5E889C
BDAA37AC
BD7A7FC3
BDBEE4E2
BDA67514
BDCD1633
3BB178B3
BDD661F2
BCCB1AB1
3D0B1EE2
BC8B32CF
3D2C093E
BC6BF22C
BBD4A1AD
BDBE3001
BD959579
3B4E2D1F
3D71F14A
3D3DBE3C
BD77BE12
3DF6440F
3DBFE975
3CC4F1A2
3DD28D86
3DAED352
3C2B92C0
BD4A5CE6
BD0F14DB
3D2E9681
BE31F6CB
3B716F44
3C7BCA10
BD942B30
3E014F05
BD077FF1
3D156D1A
3E279FA9
3B6C84F9
3CF78141
3DDE646F
3D9E4E6A
3D2E3A3B
BC6A3593
3D949CF5
BDC9A672
BD84B018
3D6A4A8C
3D1802C1
3D872C95
3CE13900
BD90BD01
3E1B078E
3DFEA5F8
3D4A9047
3D973EAB
BC8EBEE0
3CCF97EE
BB8BA83F
BE9702E6
3BAD1D04
BE394EA0
BDCD8E43
3E034C1B
3C0576CD
BD1FEC9A
BE11F14A
3E320968
3DDC3C5C
BF347FDC
3E91DEAD
3C0A4C1F
BEE5DE7A
3EA3D406
BE0DDB55
BDA53006
BE977D95
BCD1F81A
BE26006D
BE27967D
3D3BD167
BEEC82BF
3E920254
3E59899C
BF4430B1
3ED5FC5D
3DD69F49
BEA8C36E
3EE05CCD
BC5A48B6
BE09949F
BEB709D9
3DA35EFA
BEE60E52
BE8A682B
3DD9BBAE
BECBAD9F
3DE5CAB0
3E480BED
BF2D5F67
3F165636
3E18AEFB
BF09F4D3
3EBF8F8A
3E281627
BE04F97F
BE3323BC
3DDFB613
BEF2F145
BE7508B3
BDB05A71
BF0CE92D
3EB139EB
3B52C387
BF4FF76A
3EF5562A
3E0DE871
BEE08206
3EBAACB8
3E671FBC
BE35FA66
3D3724FB
3E46D938
BF4A6F93
3D8670E3
BE0A500D
BF6E13A1
3EA42EDC
BDB50870
BEEC1B11
3EC7AD8E
3DDD3FE2
BCC093D9
3E4F15E8
BCFAAAC1
BD03D578
3C03558A
BD7292C5
BDADD69D
36C9539C
BD7ECBB8
3DEE6320
3E3C9689
3D008C82
3CB01EAC
3E288DB0
BCA7264A
BD9BA7FC
3DE89763
3C6B8D82
BE18E193
3E0EC3DB
BC86D938
BD836199
3CF90D9D
BD3481B2
3D9907D9
3D818E75
BB2FE60C
3CCA2B9D
3DE8919F
3D8A697B
3A9C1B54
3BBA732E
BCC18F82
3D753E70
3D5E6DDF
BD119CE0
3D13A81E
3D220579
BE0CAFF7
3E6725C4
3CC75C4B
BE0D61B3
3DF864CB
BC0BC59C
BE16DEFC
3C7A54C5
BC8198F2
BD696702
3E10A88F
BCB7C569
BC9AD42C
BCB30942
BC25A46A
BD940BBB
BC30EA18
BD484D77
BB301861
3B8C5005
BE5D594F
3C6F1349
BB5C65C7
BE704FB1
BC7EA811
3DF0C4DF
BE51E9F2
3D68DEB1
3D94E981
3DE297C0
BD102DE0
3D8E1C58
3E07E9D9
BD292924
3D88893B
3DA084A5
BC2F965B
3DD0ECB7
BC7FDE72
BC595571
BAB06C44
BDCD887F
3D448063
3CD3910C
3CFCAC8E
3D41E8A3
BC83FB37
3DFF9592
3CA8027E
BD9FD157
3E12DA98
BBD32831
BE103C4B
3D155D5F
BD543D04
BD9632C2
3D4095F2
BDAAD0C4
BD7549F9
3DF8194C
3CBFDD66
3CB01861
3D945E0B
BDE7789A
BE0F6C6A
3DB5E743
BA1B738E
BD548777
3CACC921
3CCBB1AF
BE3B0FF1
3CA671EF
BCB51DEF
BE504BC2
3AF92AFA
BD1566CF
BD853198
BC9E83E4
3D9C2B0F
BC6F2C73
BCE72757
3D1E3971
BD6DC098
BD1D1C3B
3C495BFF
BE6ADB40
BD97CFE6
3DAF483D
BE5872B0
BDC06EA0
BDDD47BF
BD08ADEF
BE27EF5B
3CD9817C
BCB09E99
BDDC0443
3D7B3E9A
3E1331E4
BE2373F3
3D6889C2
3E289375
BE57EAA3
3D7A7009
3CF6D97B
BD95A858
3D7F26F2
3C14E1A4
BE28472C
3D781B65
3E3CD24E
BE818BB5
BC1FB613
3E6D7907
BE3B65AA
BBD67FD4
3D90CED5
BE39D2BF
BC79096C
BD80303C
BDBF6988
BD02F944
BD27FF58
3C10928A
3CC0B136
BD9AF428
BC888723
3D9891E2
3CD84902
BD4C9108
3D98A4C2
3DE22468
BD563993
3D1CBBC3
3D5CC31A
BD61BB06
3D8CC576
3D3401C5
BCE2584F
3D7AE03B
BC48CD64
BC26EB92
BAB502AC
3D239820
BDABE0DF
3D3E0158
BD80DF59
BD7B2357
3D2379B7
BCA0296B
BD5857B0
3C0B0D0F
BBA47ED0
B9B99913
BBD05F29
3DE5553F
3D060243
3ABE7297
3E11476B
BD83DB3C
BD5C347F
BCE8F084
BCD2DCB1
BD7FAD2A
3D82584F
3CE4A9CE
BD53AD5C
BDAAED9A
BC4C6823
3C7A58F7
BE5262CC
BB8BB906
3D9183B6
BE5503FB
3B9A88AD
3CE6A551
BE26149C
BD93EE5F
3D8BE61D
BC32D4D4
3D8EF45A
3D246E09
BCE85122
3C3D8BE7
BE143351
3CCA6224
3CCDDD6E
3C170718
BCFE0AC8
BC203819
3CCEF88C
3C26CA04
BC0FEAC4
BCDB8FDE
3E13DA30
3D633ACD
BB6C84F9
3DFDAAD6
3D8662BB
3D484F90
3BA1F080
BD40A394
3CE8F6CF
3ED8DD83
3C6429E1
3C7A7653
3E9BB880
BE21E1D2
3CAAF145
3C4BD556
BDA3F35A
3C332053
BE327B70
BE8E9C45
3C370692
BECE7968
BE7743E9
BD9FA094
3F0A76D9
3E69D990
BDE27957
3EB038A0
3D8C79F6
BE14506A
BC8AB92C
3CC02F30
BD945F18
BE5100E7
BCB81F97
3D9239A4
BEF4666F
BDD332AD
BCD44780
3ED7E9B8
3ED4FD8F
BC15703F
3E8BA323
3D6874C9
BDE12407
3CD3586D
BDB5F139
3CFCA42B
BE0B6FE3
3CBFF477
3E1524C0
BEED425F
3CC62A1B
BDB530CF
3EEE2F38
3E89E5E2
BD07E38F
3E805E3E
BC769878
3BA03C4B
BE3F9097
BE1E9BBF
3CBE553B
BE1D4174
BD86FD65
3E13F0BB
BF0FD32C
3D8F5126
BD8A643D
3EAB46BB
3DC963DC
BD49F517
3D8051CA
BDC3C212
3BF31B15
BE6E18F0
BE6C0A07
3D55F245
BE8D8299
3D8EBA28
3E3A426C
BE1EB8D8
3DB62C77
3D45CFEE
BCDCF894
BD2A36A0
3E2B73D2
BF157D18
BE857D5B
3DB89F84
BF3DDA49
BDF6427C
BD5E2AC3
BF519503
BC963348
3DDA0275
BEB6C6BD
BD00E6B0
3DA9D389
3CC766C7
3D473797
3E8A69BE
BF26D15B
BDF45283
3E64DD2F
BF5133B1
BE8E1EB4
BD249C2C
BF0BDE1E
BD0A88F0
BD99D12D
3D8789E7
3DF5D702
BE4962D0
3E18A15A
3DCA28FE
3C1AF188
3CBACB43
BB58BA41
BD3BD48D
BDF7E77D
3E407D4E
BD374ABA
3E6DD5D4
BC9E603D
3E0EDAEC
3EA9EE03
BE08D36B
BE31D580
3ECA99D9
3DF23704
BCD0CE4F
3EAF1EF3
BD233376
BD4E29FA
3E731D71
BD012F0A
BE13BDE0
3DEA4873
BCD9018E
BE342BB6
3EEBBCD3
3DED4FDF
BD4FF759
3EB2B778
BDECCD53
3DD382E4
3C2593A3
3C8CD63D
3DB51ACA
3E1B3E9A
BD9401C5
BD256580
3C66601C
3C1A73B4
BDF0DD83
3E08E6D1
3DDACBC9
BD2B6178
3F20E9A3
3E98F1B2
3B13B7D8
BCA81DC1
BB54ED2D
BD5DB014
BDC2FA51
3DD426FE
3D53CBC5
BD270E2C
3D1DBEC2
3DB03644
3D25A576
3C661D00
3E27F306
3D12DDBE
BE04CA92
3D1100A4
BBF0F16F
BDE8A82A
BC4D0BB7
BD8EA854
3D9C1590
3DDB0037
B9E84274
3DDD1676
3D9440AF
3DB4727E
3DBE7968
3E3BEE3D
3E31819D
BD103750
3DDF7942
BC9C4FC2
BE050D6B
3DDE53A8
BDFA8E71
3D3790FB
3D9B23DD
BE1DF86E
3DA4A16A
3D6F251C
BCE0EB68
3E3141A7
3DDBA66A
BDDDB09A
3D644956
3E1054EF
BE2FAC1D
3C6542E5
3D7AE148
BE815DB3
3E40C459
BBD8A97A
BE75A78F
3DF44029
BCC8B220
BE1A3DF7
3E3F9CA6
3CC68662
3C88EFFE
3D99C27F
3DD62281
3CEB0D95
BD41387A
BC8858FF
BD6CCD53
3DDC6541
BC455C96
BC2500D6
3DE6338B
BDD13943
BDE752DB
3E05F677
BD4FC611
38CD8559
3D4D2A20
3D005815
BD7FC979
3D091080
3C09C5E7
BCEC17EC
3B89118C
BE5F27FE
BD5EECC0
3E77E564
BDD64CF9
BE526B72
3EAB7CFE
BC1D6ADF
BEB5CCC9
3E6E8039
BC9A1FD1
BEDCA44C
3E189DAE
3E25186E
BED69857
3E3F7F06
BBADAB9F
3E0B8AE3
BE66DF40
BD32CC71
BDAA58B4
BE1A847B
3CA02752
BE332379
BB5D1E54
BD85B8DC
BE88A17B
3E811DDE
BE15C91D
BE6985AD
3E896180
3DC73F75
3DAFAC60
BEA562BF
3D176252
3D837A3E
BEB3F24E
BDC6AA08
BD8D80A1
BDCA9585
BDA5B7D0
BD965C2D
3DA8E369
BDD53E70
BE55B3E1
3DC08E15
3D5D0B74
3D753932
BE15E52A
3D66E760
3D6B239A
BE0B912E
3DC172AC
BE522CCB
BD84851B
3DD37C9A
BEBA3B79
3DD871E7
3D0677B4
BEA85059
3E1CE6C1
3E2F5CAF
BE0BC6A8
BE2D0785
3E13BB84
BD9C8430
BE39FC2B
3D4589AD
BE714270
BE0DC337
BCDF6DB9
BEAB7E91
BD050BD8
BBD4ED2D
BEB1FE22
BDA20CD0
BCD38477
3D0E3BCD
3D1D8F93
BDA8398A
BEBDEA03
BE0148BB
BD12CE03
BE1639D6
BD6FC265
BC973322
BECDDD4C
3E0CDB7B
3D9A7979
BE904C27
3DD3F291
BE316441
BD9E64F5
3CAF965B
BBBB6ED6
BE9E1D65
BE569510
BD83D46B
BEDC8755
BC30A6FC
BD0BBD38
BF570707
3E1C0011
3D9C0FCB
BEDB228E
3C7733A9
BC8B9778
BE13A861
BD25ABC1
3DD2502F
BEE3951C
BEC5729B
3E89526E
BEB9C1D7
BE8CFFC9
3E07D6B6
BE5134CE
3C923A2A
3C71172F
3E43F3E0
3D33B85F
BD951ACA
3E4CDC01
BD35EFA6
BDB3FC01
BE17D88C
BE4E32A0
3CF7FAE3
BDE023A7
3E8BBE01
3C71843C
3F059B6F
3EA4AB3F
3D442FA5
3F533A58
3B2DEEBB
BCCDB9C7
3F480BCC
3D2D7A57
3DC8E8A7
3D356217
BE1F20A7
3CF9591D
BB2B3EDE
3DB5818C
BE0ED5AE
3E8F9A4A
BD8CA255
BE480F99
3F2324B7
3A2C7DA2
BD945A60
3F31FF71
3D9DB014
3AFC2EBA
3D1A72A8
3CD04A30
BE16DDF0
3D97F9D7
BD84A83B
BD47FCB9
3DC91106
BD74A44C
3CC3ED96
BD269CED
BD023FAB
3D7D933E
BD9D449A
BC69142B
3C6FD007
BDDBF163
3E0E889C
3C8F0846
BCED959A
BB95B78D
BD4A04D1
BE0672FC
3E21159C
3CCC7086
BDDA9436
3E4723EE
3DE80CFA
3D3C6DA4
3E80127B
3D318549
BE8E84AD
3E99AC79
3E27CBF7
BD3A0621
BD8256BD
3DDF82B2
BDA4C166
BDD0435F
3D3DFE33
3E0B5244
3BF648C7
BE573190
BD5CCB7D
3EB2D55A
BE5FB3FA
BE8AFD76
3EC73ECD
BD3C44BF
BE6884C7
3CBA3A8E
3D1E321A
BE637B4A
3DD7646B
BC50F1F5
BECA12F9
3D3090F7
BE627FE5
BEBFFC76
3DDF00AC
BE4F71EB
BE69F3C7
3E941B76
3988509C
BE96978D
3DF8B0D1
BD0E1B4C
BED9FCF4
3E0E78E2
BDBCCEA3
BEE4955B
BD9FF716
BDD7DE0D
BEBCCCEE
3D87C9DE
BE3B9347
BEEFF349
BCCC78EA
3D069C67
BA688590
BD04E619
BD4A44C8
BD26D480
3DBD7ECC
BD2D6777
3E131E3A
3D756A7B
BD8A46E1
3E533DB0
3D8425AF
BDA43ED9
3E053587
3DC93D96
BCF7CCC0
BB3912DC
3D5E53A8
3B7C829D
BE3ADC0A
3DA7485E
3D69068A
BD310774
BDD70047
3CB7C782
BCCE789E
BD7723EE
BD283D36
3C71F57B
BD88EDE5
BD320429
3CDF47FA
BE0DF2ED
3CC92DDC
BE49B34A
3D622920
3DF66ADB
BE5E87D3
BDF00EF1
3D67C8D2
BE8405F7
BD5D3BB0
3CBE1A82
BE4703B0
BD1ECE57
3D888723
BD3688BE
BE08D866
BDA183F9
3CD76252
3DAAC3A8
3CE00B03
3987CA64
BD9F06F7
3D40B780
BDEC100E
3C8281BA
3DFED528
BE4D7A57
BD17C5EF
3E17507F
BDA9E343
BD8EFA1E
BD39BBAE
BD7227D0
3D833DF3
3CA1016D
BA5BAD3A
BD65332B
3B2936C6
BD37A4E8
BD92D55A
BCCCBE1F
3CA88CE7
BC80E497
3D32580C
3DBD7668
BD2734F8
3CB1C433
3D12556D
3D151612
3D469E80
BE700B03
BE408787
BCEDBD73
BD88AE75
BDD25B31
3CFA5D29
3EA5B4EE
BDE27E95
BDC0A394
3E64EB57
BE8C0A4A
3D21B4BB
BE600043
BE602DE0
BDE1F42C
3E25AAB4
BDBF7C67
BE19D0A6
3EC114D3
3C81BEB2
BDFD97F6
3EC1FFF8
BE25DFEC
3DA74320
3E8E6E44
BE87255F
3D733FC8
BDBDC726
3E174C4D
BD99D0A6
3ECCB76F
3C1AE925
BE107CC8
3E66E115
3D76F8F0
3CD529FE
3E1CCBC0
3D9A98EE
BCDE00D2
BDC116EC
3EA57D39
3DBE69AD
3F462EE4
3E8FA227
BDA0CC79
BE2636B1
3C5701DA
3D0094E6
BE4F3062
3E1DD441
3E2DFA44
BE659296
3D56366D
3DC20685
3ED35393
3E240F24
BD187D70
3EA99BB2
3E90B08E
3EEF5D9A
BE425461
BDE8BDA9
3EB60115
BEA1C044
BD5AD96A
3E542635
3D762F9D
3D0F776C
3E099243
3DA69510
3D85E56D
BE2C37E7
BAF861A6
BE21272D
BD1492FF
BC992429
3CA89763
3DCD21BC
BD2B990B
3E0F761D
3DA2DBE8
BDC82F94
3D610060
3D1085F5
3D631A4C
BD58F0C7
BCD338F8
3DAF8727
BD53C9AC
BD040F24
3DEE6645
BE2F6C27
3C94D0DD
3BDB9C73
3E0BD09E
3D863B69
BAD23D4F
3D9BB83D
3D2B0425
3BFC371E
BC74FD6D
3CE6BE7B
3E1B79D9
BDE5E2CE
3BB30B5B
3C02D384
BE101F32
3D37BF1F
BDC83F4F
BD1B5526
3C6B6391
3CC6C54C
3CE51F3F
3DD93FF2
3D5B5632
BDA51EB8
3E228177
3E0F5126
BDCA17B1
3E17A4A5
BDC85DB7
BCDE1C15
BDA327EE
BD7B6567
BB0472C1
BD3838C1
3D192C8C
3CDFF60A
BCAA8EB4
3D4A3A4B
3D58D584
BC49C90C
3CE4E26D
BD577EA2
3D6DA123
BE404D12
BD243DCD
BCF3C925
BDD83D79
BCEE5EEE
BDA682B6
3BBDD335
BD82B5A2
3D48F649
BCEE34FC
3D54C76D
3CC9FF93
3E84CF8D
BE3F533F
3DC14B5A
BD5594F2
BD405708
3D3E132B
3CD1AA82
BD4726D0
BE475E63
3E51B110
3DF76146
BD20168B
3BFC371E
3C950FC7
BC7B71FC
BEB1DE6A
BDD68D76
3D8D1C7E
BEDAA002
BC98B71C
396E06D9
BE7EAF25
BC129ED4
BDD2B66B
BB65B424
BDE87B9A
3CB41BFC
BF14980B
BD4A7504
BCE14DF9
BF66E8D1
BCA04296
3D96D43D
BF143F0C
3DA2528B
BD019E30
BE356191
3DB490E6
3D935E31
3D8AC42F
BDEA68F5
3DDC2092
BEBEAC00
BD793BC1
3DD0C910
BED51740
3DC6E009
3D5DFA87
3D7AD4B2
3D761ED6
BDBFC6DA
3D413B9F
3E219610
BD9A6A44
3E470B8D
BD504B3C
BC8969A1
3E9B0B18
3DBBB7B7
BD9273D6
3F0C5AB4
3E3D82FD
BE4DA3C2
3E8DA251
3D9BD6A6
BDF66278
3E7C5586
3D3D9DBB
BE037825
3EA3D61F
BD8AB3EE
BE02EAD9
3E4B79D9
3E3A82E8
3CA8155D
3E13A2E0
BE1A51A0
3E0266BA
3E5C7150
3DC77F6B
3E57531E
3C63582A
3E80DB6A
3D413CAC
BCF74470
BCB67E41
3CB0A4E3
BD0B4BF9
BD61986C
3CEE7C4A
BE09E343
BD8EF45A
3CE1AC58
BD2745BF
BCA647FE
BCA5CA2A
BDBAD107
3DA64F55
BD05DA6A
BD0E5711
3D3572DE
BC94C448
3D523F68
3C89D8C7
3D753F7D
3D757C4E
BC59988D
3D8A94FF
3DB001D6
BC1BA5E3
BBAFDDA9
3D8F97EE
3CB649D4
3CBB645A
BDA637BD
3DCE8427
3D5F9BDC
BC843E53
BD9A9DA6
3D8CE91D
BA8051CA
BDB03537
3DB96AF0
3E355326
BD8492BC
3D4E23AF
3E1B291C
BD1AC472
3DAB04AB
BD4E8427
3CF15832
3D9FF823
3D43DDDB
BD544DCB
3BE1A3F4
3E14538F
BDEDDACF
BBE4B018
3DCA0557
BE09A88B
3BBF0132
3D400325
BE0E08AF
3E1FF690
3D65C1C6
3D175297
BD5246BF
3DA13123
BDE0BED7
BD932379
BCB3311A
BE35A101
3CA9AC36
BD65B63D
BDF717DF
BC92FF4C
BD0141EA
BDDFC979
3C5D26B7
BDE30121
3C2F9EBF
3D4AB92C
3D3B6998
3C4C07AB
BD4FA483
BD1C5E70
BDEB3461
3CC82385
BDA08206
BBFD21FF
B924A05E
3D1320DA
3D02E87D
3A3BF50E
3DD700CE
BD137F39
3C2F8DF8
BAE6AFCD
BD26A444
3D23AE25
BE2AEEA6
BCB76D55
BC995CC8
3B20902E
3E03F5B6
3BBA5A04
3DA8C1DB
3D868F4B
3C9D8C6D
3E3671AC
3CF51ACA
BD2F71A8
3CC1E365
BE1AA6D2
BD118D26
BE5BF9C6
3CB52008
BE15C24C
BDAB8AE3
3E7C98A2
BD1AA1D7
3E106812
3DD63561
BDFD1D47
3E2F72F7
3D0CCBC0
BD493D96
BE0729F6
BD876A72
BD210492
BE5418D7
3E2BC98A
BE17064F
BE11AD64
3E778AF4
BD665BEA
3D7C115E
3E62B064
BBCBD988
BD91D14E
3D4B6D87
BDA2B5A2
BDB4CB19
BDD22C88
BD064778
BE099956
3D70E6F3
BC9142B3
BE353EB4
3E0AB5C4
3D1CDB38
3C590E24
BC372820
3D32FA94
3E6492FF
BD90E560
3D1F99C4
3D20C5A8
BDF8897F
BA982CB2
BBA07703
3CB25700
BD36262D
BD77BAED
BDE0FF54
BD0D1D8A
BDED5CFB
BDBB3D08
3D6A4B99
BDDC92DE
BCBF6C27
BD017CA2
BE461BB0
3D988F43
3BC343B7
BDCAB042
3E061C37
BBAFC47E
BDA99418
BDA5479D
BDD9F1AE
3D978898
3C99DCB5
BD0C0054
3C0DDA49
3D3F327B
BDE7D912
3CA1943A
3E2C23FB
BDFFA2AD
BD9992C9
3E6C6089
BD6DFC5D
BE0C48AE
BCCB2D90
BD0EAD0C
BDC66B1E
3D3312B2
3D5DF00B
3BFB43D9
3D8473CD
BC13B7D8
3CF9E16D
3E52480F
BC14F69D
BD4E8102
3DD46AA1
3B451117
BE1AA9B5
BE27E6F7
BD86A6E3
BD132D6F
BD572ABF
BC2EE200
3D161F5C
3D434C1B
BD785E81
3C6C918E
3DEE6A77
BBD1E109
3D3A311F
3DFE5C0C
3C215550
BD9EC786
BE3DFE33
3CC8216C
BD46BCE8
BDA7D780
3B0F2171
3DC93D96
BB79096C
BCBEF6B6
BD603D57
3D5372A4
3E0775FB
BDE17F41
3D059D99
BCF0110A
BD33D5BB
BCA62457
3E608312
BE1C3D25
BE02B51C
3E683C6D
BE98DCFD
BDB5B574
3E354EF4
BE73D7D4
BDC2877F
3D906CCA
BE222C45
3C44FC1E
3D99146E
3D1C37A4
3D86DD6A
3D4A7504
3BB9F55A
3B134268
3DE47E4A
BD3315D7
3DEDAA93
BDE486AD
3E05D895
3D8DA22F
3DB4488C
3EB3CA10
BD8FCCE2
3CBA40D9
3E96B980
BDC95747
3D8712E4
3D6D794A
BCD6EEFA
BCBD48CB
3E20FE48
BE310668
BD9C1F86
3EB84F2B
BE8ADEA9
BD0A1CEF
3E8AC16E
BD57E23F
BE0D6345
3DA3076C
3CAC2BD8
BD83AD9F
3E35A74C
3E00D0AB
BD81AB4B
3E1C8DE3
3E1264E5
BD99780C
3DED3BF3
BD4C1765
3CD1526E
3E24C986
BD9CB146
BC83B81B
3E01EC4E
BA14A2BA
BDD1D9B2
3E28B5CC
3E643FA3
3CD01E26
3E15A709
3DE6F827
BDAD288D
3E348494
3D8B0B7C
BDBEAAB0
3E24C4CE
3E0E8FF3
BE822F6A
3D6ADB40
3E14794F
BCE30447
BD3B99D4
BD258F71
BC088B54
3D822E5E
3DA1D218
BD113511
BCA15337
3AF96E16
BD84F441
BD118E32
BD23ED0F
3BC4BD34
3CA62025
BC6AFEE7
3DAB87BE
3D8B85A5
3D5898B3
3D885447
3CEC1C1D
BD4445AA
BCA4052D
BE23A7DB
BE09F7F9
BD6A9C56
BE662F16
BD1794A7
BE4D9946
BE894D2F
3D4C7193
BDA35B4F
BD84651F
3DD3250B
3DB68CEF
BE2F4BA5
3DA2D278
BBA369FD
BEC47C74
BE0445AA
BD22E4D2
BED9754B
3E06805A
BE5B91F7
BE97A8B5
3D538AC2
BE5A8049
3E5345D0
3D8AAE29
3DE0EF9A
BEB618F0
3DB5592E
3E4C7000
BEF01E04
BCFA67A5
3E54E054
BEA43EFB
BE02C732
3DE8E0CA
BDB0BF1A
BE0DA05A
BDA39E6B
3E885E5F
3C9A62ED
BCF3EEE5
BE04EDB3
3DB0941D
3B2A64C3
BD2C6DE7
3DBCD680
3DAEA748
3DA1C151
3DE42AED
3DE909AF
3D67125E
BD336BD3
3D936B4C
3E805858
BD83FC44
3D4CC682
3D337C9A
BC82A348

