3D60E304
3A1741D1
3E0AFBC2
3CAA8EB4
BD586983
3E92C8E7
BE0C8F75
3DEA1273
3E890D9D
BCFA9197
3DDFA333
3E6B66B6
3D9DEB53
3E23DFB1
3D9E9292
3DC26FE7
3B98A223
3E24BA52
BE4B089A
BCE92F6F
3EC7D3B3
BE84C964
3D751BD6
3E7F97EE
3C149E88
3DDA1A93
3E32B51C
3DC9CD3E
3D9BB8C3
3DBE54B5
3BC6F7A1
BD7BDAD7
3D774CD3
BE0422CD
3BBD87B5
3DB2F449
BD164628
3E08BEB6
BD34C5DA
3E18090B
3E0A6E33
BE11700D
3E69C94F
3DB4DF05
BCF5989E
3E9E7EA6
39B45AE6
BE283B1D
3D6B53D6
3D1117B5
BE42517E
3D889CA2
BDCAB4FA
BE3C0CE9
3E8278D1
BD3FAC1D
BE8404A7
3E6CB429
3D2F965B
BD86D374
3E06E71D
BDDA3B9B
BE7EBBFD
3D300BCC
BE03C4F4
BE87C244
3D7AA8A8
BE00E886
BE4C460F
3DBCF2D0
BDB29889
BDAF0B6B
3D2F3908
3D990EAA
BE07D285
BDC979E1
BD1C4007
3BF08CC5
BE3E557E
BD9F5C6C
BDCFC265
3D65FC7E
BA3BB1F2
3D026CC2
BD3E9963
3D064452
3D6DB403
BBDB0575
BCC22CCB
BDB0153C
BCEB7ED4
3D998C7E
BDDEE0B1
BBAFB3B7
BD8E9707
BD078D93
3D8E2E2C
BD80A41A
BD73D8E0
BDA34B94
BCBCE853
BC18F1D4
BDC2456F
BDEB2420
3C6B6391
BDBCAFB4
BD863AE2
3D7F61AA
BE60EFDD
BD470DA6
BD9E4A38
3E1A0275
BD24B33E
BD971540
BCB08356
BCB3DD12
BE2A7115
BE388BDB
BDA6783A
BE0FD9BA
BE8DCEE1
3D15CA6D
BDCFB331
BE42A993
3DED490E
BCA67408
3D3AC3EB
3D97FCFC
3DA4CD75
BCAB6284
3D6A50D7
BBC532A5
BDFE974A
BD57D9DC
BDE3BD5A
BDEE49F5
BD93A2E0
BE41FF71
BC90D38D
3DEAAB04
3E218EFC
3D7E6927
3E3E889C
3E4ACE68
3DBE657C
3DA6748E
3D3BBF94
3CEAD0C4
3D937E2C
BC271151
3C069835
3D1CEBFF
BD8B3700
BCAC5C14
3CAA5E78
3C51FA33
BE35918A
BDDCE52E
BE28CE2D
3E43A472
BE3AA088
BE1868FD
3EA7079E
BE1C319C
BD60B3D5
3DAFEE70
3C4E0B91
BC89C800
3E18904F
3CEF3F53
3C9F4906
3D2E0F3D
BE003C4B
BD821188
3C6C397A
BE1EA961
BD99E1F4
3E4AA21A
BE0F4C2B
3D6135DB
BCD20F2C
3C20F4D8
BD0055FC
BDC2FA51
BCCFC1DF
3E0E7792
BDCDA5DB
BCE30EC3
3D079B35
BBFD5454
3A9E774F
BAC521DE
BE3BF551
BB0EDE55
BE3C1A48
BEAC1AAC
BBC73ABD
BE3EF06B
BEA8B008
3CDFCA00
BDA6D9BE
BE04C3C2
3D15B680
3E23B7D8
BD200086
3C7294DD
3E7FFE2A
BE2C92DE
3DCA6D26
BD64D5D8
BEF823EA
3D060AA6
BE86F651
BEC37825
3C41CE6C
BE974235
BD8D1527
3DBAA9B5
3E21565C
BDD5DEDF
3EA00C74
3DD4AFD5
BD889E34
3DA157EF
3DB36588
BE0414E8
3DB6A9C5
BC8370CE
BE379DD4
BD54195D
BD686D72
3BDD15F0
BD133F42
3C7AFC8B
C01DFA48
3C3DB5D9
3F10D035
BF0125BB
3DE97742
3EAFBBF9
BF0613E4
3E709BB7
3E939F12
BEB16A8C
3D8F2F12
3E388CE7
BD4C9EAA
3D3A732E
3C88C826
3DF095AF
3E8260D4
3E14CCEE
BF119221
BD949518
3D173D9F
BEB1B1B8
BDD1F03D
3E2893FB
BE5162F1
BDCDE3B9
3CC5C78A
BDFE0371
3E021B7E
BE6A0BE5
3E03AD5C
3E5870DA
BE9434E3
BD859B80
3D2EDCC2
BE667E41
BDF11E00
BDCFCEFB
BD5F5DFF
3D902928
BEB43ED9
BD1A9A80
3EB4751D
3BCB31C2
3D82ECAF
3EF7F866
BEBAE947
BE66759B
3EE17D4A
BEB234EC
3C6A4A8C
3DAE12E8
BEA01FB8
3E58982D
BEBA832C
BEE8B392
3EEB7521
BDACCE5F
BF3F0C13
3F635EC8
3EF2131B
3E0AFC8B
BF16D1D0
3F14C62E
3E392FB2
BF47B42D
3F349918
3DE09678
BF28A255
3E92580C
3F2DC62A
BE95BF8C
3DFEDFA4
3F40140E
3C09331A
3EB541D9
BBF57710
3B1EECC0
3FAC1859
BE2BEB18
3E5653CA
3D416F00
3E39E4D6
3DFFA094
BE697FA6
3E181E8A
3E57368B
BEF93965
3CF5D13D
3E417CE5
BE87457C
BCB83CF3
3E89EE24
BD813C25
BE9386D3
BDE90710
3EA32895
3E78294A
3E03BD9D
3DFC4546
3ECD32E8
3DBD694D
BEFC4ED7
3E08C048
BE08A32F
BEC7470F
BE19374C
3E32E126
BE23CA32
BB373D19
BEA88744
3F3AF09E
BEA4113C
BED1AE2E
3EDE7D56
3E484D34
3BEFE500
BD94A559
BC17635E
BE8115DF
BEA69DD8
BE422963
3CD66278
BE8677F7
3E223465
BE1C9364
3EB6B207
3CE9680E
BD98BBD4
3EBC4418
3E2760BF
3D102689
3D3A9F38
3B492147
BE05703F
BDA8D8ED
BD9014B6
3DB78A2B
BE333FC8
BE475C07
BE285EC4
3E31C21A
3E075F70
B9E410B6
3EC549D8
BD1E2047
3D0C62E5
3C7DA405
3C58FD5D
3D0BAF96
BE2C2F40
BDDF82B2
3E081301
BE0EBF23
3B371B8B
3C991149
3E348627
3DAC18F8
3E0DB121
3DA60C39
BCDDE15D
3DF6D331
3C70BF1A
BCECD291
3DCD7625
BCCB20FB
BC203819
3E1AC7DA
BDB8D60A
3D8C2614
3CA007DD
BE644956
BCF90FB6
3E685A92
BD0301A8
BABC382A
3E678F69
3D9A6CE3
BD7BE447
3C00E497
3DC66D37
BDD74DE0
3DA74AFD
3D854930
3D963800
3D5C7582
BDE02214
3B057F30
3E8F58E2
BE8B7C78
3D92E9CD
3ECB5697
3D4B545C
BD2FEB4A
3E06EE31
3E4A6613
BD943287
3E9E9A4E
3E7866E4
3D241E58
3E847BEE
3DAEFF5C
BC779852
3E9FE825
BE8AF901
BC797679
3E82BB23
BCD5D5F5
BBF70154
3E861826
3D6A3AD2
3DD0531A
3EDC5847
3E707C42
BD96B229
3EA4B59A
3EA7455A
3D0A99B7
3EAD8772
BD872C95
BD805815
3EA1DB87
3A3E0DED
BDBE718B
3E5AB325
3D8F7660
BD5F9BDC
3E99307B
3E4F212D
BDE394FB
3D9D5CB8
3E998C5D
3C9B3D08
3CD2B90A
3EBE9857
BCD1569F
BE7086BE
BDAFF434
BC9CDE5D
BD9E8E61
3E97E415
3E145FE1
BD74E11E
3EBB0A0B
3E625B75
BE552264
3E63686A
3E9ADD7B
BE8898D4
3D8ECD08
BD63F35A
BE5ABF34
BD980CB7
BD0B7C35
BE40713F
BF04195D
BDD2F2B6
BDF8DF7A
BF56F73C
BE1F3776
BE23A798
BF1558FB
3D1D1D47
BE2D7668
BE221DDA
3B05D313
3EBCF9C2
3E83B0E6
BE254691
3EC846E9
3E263561
3CBE0BD4
3EBA2A0B
BE3FD36F
3E028A61
3EA6C43F
BE2FA051
3DAF3F53
3DF44029
3C11819D
3DCC2D6B
3D4D9514
BE7FE08B
3E1FAB97
3D9A4D6E
3D946801
3E94AAFC
3CB3E9A7
3D44D65E
3E0A337B
BDD47410
3DC01DE2
3CFB58D1
BDC52F7F
BDC2A1B6
BBF51266
BE277708
BCB415B1
BA8CC576
BEFB8DC5
3DFFD47C
BB89F40A
BECAB628
3C1F5DFF
3C515F03
BE541B33
BD1D084F
3E30B6FA
BDDE48A6
BDD9C7BD
3CED97B3
3BCD7492
BE33D3A2
BD34BD77
BE3768E0
3E1E2585
BDD50E34
BE5F316E
3E2CF5F5
BE1744F6
BE1722E2
3D0CE0B9
BE1DC22B
BE03E575
3E20129D
BDC4B87C
3D0FF866
3E50B999
BE56E610
3C8A6FC6
3C8B0F28
BE93CD36
BCAA9931
3DC6DB51
BE5C14C6
3D0B1AB1
BD98DAC2
BE4C371E
3DE97311
BCD7C4E3
BE146413
3DB3BA77
3DB38583
BD4409E5
3DDA3C21
BE476D11
3BDE3B8A
3DFDB552
BEAC5F18
3CDC69F9
3D99420B
BEC2A1F9
3CB59147
BBD8BA41
BE8F138C
3A5844D0
BDA6B1E6
BD87CA64
3CD95140
BD13DD98
BE262E90
3DB044F2
3BD1E109
BE90EC74
3E2DA986
3CB43B71
BE1477BC
3E24228A
3C966BE8
BDBDE050
3D34C4CE
BD2BD2B7
3DADB61C
3D10928A
BDAE1049
BE116FCA
3D9719F8
3B9B280F
BD9B951C
3C94D50F
3DD9780C
3CE12E84
BCEE6751
3DBB4DCF
3D092253
BBF14552
3E013DB8
3DCF08CC
3C306C44
BCE924F2
BF7B02A3
BDAF3882
BEC0A4E3
3F22187A
BE52A27F
BEDE1998
3ED343B7
BDB53CDE
BE9D3650
BDE563ED
BD96EF80
3D0E7CD0
BE68C155
3CC9DBEC
3DCF8BDF
BDA6C1A0
BAFEEF5F
BEEAE18B
3F3D1633
BE08E4B8
BE92C53B
3EA9D734
BDB4213A
BC9DF549
BD688377
3D5BAF53
3ED89396
BE4BA776
3C6B356E
3EA93BC1
BE3B1E9F
BDF6B1A3
BEA7E1DA
3E97EB29
BC942D49
3DD75FB3
3CEFD220
3DC47CB7
3EA133C2
BC5EB0FB
3DCEA316
3F2AA1F9
BECBCB1D
3DEB3CC5
3E91E29B
BE1CD3E1
BDA00757
BE406317
BC7CF80E
3DF2DB1F
3EB6F933
BBF4BE83
3DBFB15B
3F2BF477
BDEC93A7
BC720EA6
3F119A31
BE9ECFA7
3E4FBA88
3E685EC4
BDF7A787
3CAF5BA3
3E5C18F8
BCE5907E
3D43A216
3ED995EE
BC4FA26A
3DDBCDBC
3E89D042
BDAF7B18
3D6F294E
3E6234EC
BA727BB3
3DA8FA7B
3CDC69F9
3E2D9381
BC991149
BC9971C1
3E7BF65E
3C05B185
3B9539B9
BD5F7C67
3C960FA1
3D2875D5
BD863950
3D13E5FB
3D88CEF6
BDC477FF
3D813448
BBD594F2
BD95104D
3C8EA39C
3D10D38D
3D2CA255
3D247CB7
BDA6D8B2
BD62D83C
3D5ED17C
BDB0574B
3C9CD1C8
3D1BA1B2
BDBB6028
BBEC6BCF
3D8B4203
BCE34118
3C00346E
3B3C7B46
BC99D452
BDA378AB
3D7C30D3
3D155715
3CF88DB0
3D9914F5
BBC25072
BCF5E204
BCDABC0E
BD9BE76D
3C94C016
3E0AC96D
BC0155D6
3CDF41AF
3D85FBF8
3C7B3743
3D18E64B
3B82E01A
BDAE2B8C
BD0F1D3F
BBAE18AD
BE1961C3
BD35818C
3D3FBACB
BDDB8CB9
3B96AAD2
3DA3EAF7
BD938CDA
BBE2A800
3D0169C2
BC948DC1
BDA53A82
BCF00475
3D7C0D2C
3CEA4873
BC41094A
BD3C408E
3DB308BC
3D5BEC25
3E11D9B2
3D8E29FA
3D4CFE15
3D8F28C8
B90A697B
BB80AE10
3D24F65A
BB909AED
BD3ABC94
3D12DFD7
BF441E79
3DE1815A
3E678F69
BDE4B125
3C9AE925
3E2067CF
3D95104D
3C4FD8F1
3E49F8C2
BD20A527
3E737E6F
3D66698C
BE94B274
3E4289DB
BDECD856
BE55271C
3D3A2596
3ED37803
BE64F441
3DD7867F
3E7B955F
BCDAFD11
3BACAFF7
3E46CEFF
BE82B820
3DE8C79F
3DC8EC53
BF12CFD9
3DC60C39
3D9CBBC3
BEBDBC66
3E4D81F1
3F01798E
BDDC7CD9
3D4B08DD
3CB6006D
BE615CEA
3DC8BA84
3D56FA83
BEA33AAC
BC0EF77F
3E867DDD
BF05F4D3
3D9103C9
3E6B6284
BEEE8CAC
3DC16A48
3F1C0043
3E00CAA3
BD6B2E17
3DD8793E
BD118B0D
3E241701
BE22CCB4
BDDAB29E
3C43D684
3DAE7A31
BE96559F
BE5C6FBD
3EB7B1E2
BE7658C5
3D973D9F
3D1017DB
3D9F4906
BD89B307
3C9C9D5A
3E0EBAAE
3CA12F90
3D141E9B
BBF8F8A5
3E114446
3E6D8C6D
BDA4EB57
BD8E67D7
3EDC5EF6
BB90DE09
3D256367
3D4C79F6
BEA1A08C
BBF190D1
BDC6466B
3C9BF7AD
3C9E8816
BDD404EA
BD12A305
3A566F0D
3DE1DF33
BDA9D6AE
BC415D2D
3DB32D6F
BD21F3A5
BDFE03F7
3C4F7879
BC43760C
BD9BA776
BE1B8DC5
3D1B09A6
BC451548
BDB669CF
3C2936C6
3C9ED9E0
BCEB4635
BE06D331
BBB94531
BD45F395
BDAB8499
BC977857
BD160957
BD8C0379
BD87FBAD
BD44F8F9
BD468EC5
3C817B96
BDB8C650
BD609DD0
3D4C857F
BC548CB5
BDA9F517
3D3214F0
BDE9F517
BDCF3D3A
BCF65775
BC9CBEE8
3C742353
3DBF316E
3D0387DF
BCAFF2A1
3CD9F2BB
BCE38EB0
BD4E8EA4
3D66C8F7
BC5F19D6
BD8E1D65
3C5F6DB9
BC369985
BD99B131
BE0FB82C
3DF1B9B6
3D976039
3C3FA8F8
BDECAB3F
3C84FF43
BDDCEA6C
BE2945FA
3CEBF877
BD8BD44A
BD4C23FB
3CD54DA5
BDB5FDCE
3C8D5C74
BCCB4AED
BD834B94
3D8F0953
3D16DA01
BCDFEB8E
BD085F4A
3ECCC78F
BE28C9B8
3E9C0768
BE898762
BE0644D8
3EAD27A2
BE96008F
3BDC3BD6
3E378961
BE1E1DEB
3D73DD12
3E01EC92
BE0BACB4
3E8A54C5
3DF7A3DB
3CC68017
3C846845
3E675148
BE5C53F4
3D90C77E
3E167EC8
BE1C47E5
3E25D5B2
BD5D0529
BD94B407
3D79FFD6
BE1F2303
3DF62C77
3DFC219F
BD3D31BA
3DFB0814
3CCEB357
3DA22574
BCB58AFC
3C0DDA49
BD6177EA
3E0465A5
3D7B05FB
BD80420F
3E70C38F
BD8B1EE2
BD427A63
3ED14EE4
3DF2DC2B
BDC47DC3
3EAFA637
BE3BC558
BE0CBEE8
BC5987C6
BD7D9BA2
BE05B5FA
3DFD2B6F
BD3AA583
BC63150E
3E0AB9F5
BD60B4E1
3C9700CE
3E885AF7
3E052E30
BDF994E2
3E1DBA91
BDF81E04
3CC0F239
3D2DBE7F
BE2A9329
3C826AA9
BBF3D3A2
3D41D4B7
3D8FBB95
3D9CA18C
BBE34FC6
3E1A32B1
3E32C7FC
3DAB4A66
3D827B70
3D586DB5
BB8F5C29
3CB9B23E
BF03C2DB
BD8E11DC
3D8F8F04
3C4A57A8
3CC8C500
3D3C8D19
3C63F35A
3DFB5BF7
BDDEAD4F
3E0E75FF
3C6AC42F
BE619EB6
3DD39325
BCF08AAD
BD5E16D7
3DB5F783
BCC3BF72
BACD20B0
3D81D6D0
3DD52E30
BCB6EF80
3D8DA33C
3D91C53F
BDFF1737
3D6D5172
3D576790
BE9A2B7C
3E42E0E3
3DA7064F
BDCE4B88
3DDCCC8A
BE19C800
BD18DEF4
3D185597
BC52AA5C
3E1F9980
BDC66BA5
BD2394FB
3D51D042
BDEAC5C1
BE2A8156
BDDE07A3
BDCFBA02
3D93C57A
BD37531E
BDA33CE6
BD525892
3D82491B
BDA752DB
3C684AD8
3D533C1D
3D20FC2F
3DBCC858
BE1D3522
3E01F213
3CF9DD3C
BE40489D
BCF405F7
3DCDD8B6
BCAD538B
3CF8CA82
3D9AF102
3DB69446
BE319653
3E01F96A
3D2DFF82
BE3EC1C2
3E0E84F1
3E396180
BE0F049B
BCBBF2F5
3E8ABE6A
BDA5CEE1
BC86A6E3
3E56A726
3DA997C4
BB168944
3CB1183B
BDA4095F
BDEE807C
3DF872F3
BD42C0A5
3CCD37C1
3DB2007E
BCEE9BBF
3D25F84D
3B5306A3
3D8CF180
3D1652BD
BD382907
3E1BD274
3E525BFB
3DE8D6D4
3E01EAFF
BD4D5D81
3E81528F
BE38A3F9
BD257C91
3E4C82E0
BE803298
BD0D60A6
BD4C1440
BE870E91
BC9FE64F
BD847885
BE0EEAEA
3D956D1A
3D462E4D
BA694EE4
BD82C5E3
BD0446B7
BC9BE2B5
BBFCB4F2
BD3B6673
BCB4F3FE
BD0BBC2C
3C034D27
BD942D49
BD03AEAB
BDBA5FC8
3D52A844
3E27B7C8
3DCDCD2D
3D586CA9
BDB79182
BDEB1BBD
3D9B5F1C
BCAB6F1A
BDD4994A
3DD357E6
BD532E7B
BD0079A3
3DB44806
BD714CA9
BCD3E708
3D285879
3DC1D29E
3E04B1EE
BCB28955
3D03382E
3DB990B0
3D51819D
BDD798D9
BD44D877
3E0915BE
BCA83904
3BB29E4D
3D818DEF
BCDAD96A
3CDDE376
3A9D6ADF
3D4C2A45
3C9F3C71
3C7EBD0A
3CC98A22
3CE4191A
3D8D2FE4
3CA0A73F
BD914A90
3CB4CE3E
3D612F90
BE34E8FB
3D935D25
3DA7EE0B
BDC8EC53
3DF5BCCB
3BB02928
BD11FD59
3E5B91F7
BBCEF673
3E338327
3E053A82
BDC2E558
BE1B3FEA
3E042635
BDB40358
BE9AB9B2
3D85FE11
3DAABF77
BE68CC14
3DE0DD40
BD0BA733
BDDDB339
3E6CE9E6
BD85EEDD
3D5002E2
3DEDB37D
BD9BF8BA
BE7708EE
3D44BF4D
BE057C91
BEAA491B
BDB12DBA
3DC2C6EF
BEB22E1B
3CC1D085
BD799B2C
BE3CFAAD
3D8B4AED
BE01C2E3
3D5F3C71
BD9B224B
BDB5E743
BE361ED6
BDB9695E
BC1D16FD
BE9A70D2
BD5FC3B5
3E19D990
BEB3419E
3B957CD4
BC8B08DD
BEC3007A
BDA55FBB
BBA6A876
3B9F83BE
BE6018E7
BDBE8C48
BEA5816B
BDA97B74
3DAE9E5E
BED358B0
BDDF505D
3D80956C
BEA4D9C7
BB30F27C
BDA6FBD2
BE7919AC
BDE0DAA1
3C1799E5
3D80218E
BCDE95B8
BD31A5CA
3D19AF9F
3ED2B1B3
3D235A42
BD553693
3E4777D1
BD4D50EC
BE1AD57C
3DA985F0
3D8FB97C
BE761416
BD99439E
BE05EB31
BE7FFF37
3CA6DEFC
BDDF25E5
BD99BFDF
3E038D61
BCE05AB4
3CB8DA3C
3EB5ECC4
BE667C6C
BE0C0592
3CF9AD00
BE83AABD
BE07FA1A
BE3DC6A0
BC252264
BD9E14BE
BE11EEAA
3E0A45D4
BE2E1651
3EAF136A
BB95E17E
3E97FE2A
BE967FB2
3E4684CF
BCA47A9E
BEB6CB75
3E4816F0
BE42EA10
BEE3CAFB
3E62706D
BDC2AFDE
BF23F39D
3ED2033E
BC9F6EC6
BEDB0A4E
3E2F0670
BD936F7E
BE95F19D
BCA1F6CB
BE823748
BF0F1487
BC8EBEE0
BE00D7BF
BED34A66
BCED45E9
3DFFA54C
BEBBCC4B
3DCE6080
3E869553
BEFAB799
3D9EB075
BE3CC6C5
3CD07C85
3E14F1A2
3E16B8B7
BE872BCB
BD67E308
3E514057
BD1A6613
3E205575
3E57A919
BD9E9963
BCBA3012
3E845B4B
BD93471F
BC79FCB1
3D1AF8DF
BEE72CB6
BE0CC6C5
3E661911
3D76BA06
BD4CCDD9
3DB9E94B
3DF39C95
BD4D6E48
3CFE6927
BB9FE005
3CEEC7C9
BCF65DC0
BDE08312
3DD60F1B
BDB76D55
BDBA2D73
BD3024F6
3DEACB86
3CC7863C
3D2F1455
BD1A5871
3D8B6284
BD2C3B92
BE3AAFBC
BEB3AB65
3BAEC8D6
BE681B65
BEE931A9
BCA6EDAB
BEAB582A
BE8B91D5
BC8DAC26
3D2440F2
BC1FDBD3
3D18F3ED
BE13E2D6
BE388766
BDA84DFD
BE9B31E4
BE833A04
BD5306A3
BEA3D124
BECC6E6E
3BD57364
BEE6A4EC
BEA59C28
BD45E2CE
BE05C5B5
3D865A57
3DC3CE21
BEB1A5CA
BDC76F2A
3DA25FA6
BEAA0579
BDB3543B
3CFA9197
BEB2131B
BE107AF2
3E026C3C
BEBD23B3
BDBE2AC3
BDC62995
BEBB32AD
3CBCDDD7
3E095D92
BE8803EF
BE0390C9
3CD04E62
BE211B61
BE04C122
BCAE429E
BE538C11
BDE30A0B
BD8E88DF
BE3C08B7
3DCD98BF
BCF991BC
3C57D391
3F096E48
3CF8D4FE
3C7A00E2
BD8D78C4
3DA471B4
BE2B7D41
3CB033A4
BD652BD4
BE3F7BE1
BD7D6C72
3DB5FF61
BE3EDCC2
BE1282C7
3D9B9F12
BE2ACDE2
3BA1B5C8
3D88CDEA
BE1F3776
3D8583E8
3E3E6BC6
BE63CDDD
3E63BFF9
BCCBF4CB
BE1B5287
3E5A7653
3C6DDCE8
BDCDBF05
3DA1309C
3E1F57B4
BD926528
3DAD2780
BD824A27
BDCBA27B
3CA9D40F
BE0055B9
BC37C782
3DA221C9
BDF93144
3C9C0EBF
3E715DF6
BE19EADD
3DC3A216
3E2AA1D7
3C9E4B45
3C28F7DB
3D96E58A
BE651330
3D30CCBC
3DE86488
BD07C0F4
3E1F88FD
BE48EC10
3D950A03
3E3B5ED9
3D0CA81A
BD751373
3E871C54
BB829CFE
3C4B74DE
BCC0D0AB
BE09D1B3
BDF26F1E
BD5492FF
3C91B824
3CE13F4B
3E24577E
BDEF8C65
BC4C857F
3E18B589
BE164ECF
BDEB66B6
3E0DFA01
BE2AD7D8
3CEA3DF7
3D965343
BE5D9CF1
3C90CB29
3BFE0CE1
BE6C00DA
3DC8E608
BCDCF030
3DFE1544
3DA5B856
BDEABFFD
3DEF46AA
3CBBDBE4
BDFD523B
3E3756C9
BDB4A3C6
3D8110A1
3E7DD93C
BDA50A46
3B70520D
3E8DD5D4
3B0216C6
3DFF00AC
BD84B4D0
BD3F0026
3E126D8B
BC5D26B7
BD96E829
3E63226C
3D7CCD10
3BAE2974
3ECCE209
3E412770
BD36D549
3E71715C
3E91A3B1
3D662457
3DF7FA5D
BE81769B
BE0E34FC
3EA1D55E
BE080D3D
BD1A20DE
3EA02CB2
BE44F6E0
3E30AF1D
3EA8348F
3C2BDA0E
3DC6DC5D
3DE670E3
3DDF1E8E
BB7CB4F2
3D86C1A0
3D7B890D
3CDF8099
BD322AF5
BD9FE197
3D94B7B3
BD2619DB
BE07635E
3E476F6D
BE133440
BE0898F6
3DD335D2
BE870564
3D0AC8E7
3D8617C2
BE9F7E1C
3E0121EE
3DC92DDC
BEA37C35
BD619546
BD3689CA
BECE4778
3C5DCA4B
BCF2E276
BEEF65DC
BC8AD03E
3D91CFBC
BEAB8D61
3DA28566
BD23B689
3B85C24C
BF9B9C8D
3E078184
3D239A39
BE65A5FC
3E130942
3DDA6DF0
3E05F8D3
3DEADCD3
3DF3C148
3D291538
3E26F976
3E3C88E8
BE39DF98
3D9C8C0D
BCAC98E5
BE0FF0CC
BD69E0A4
3DDD3459
3E03E78E
BD3C45CC
BE564B66
3E11B824
BD0B9ECF
BE2C432D
3E45A1CB
3DED98BF
3DBB1B7A
3E8DAD10
BDFFBEFD
3CCC1659
3E02ED35
BDC466B2
3D37329C
3E4621FB
3D25A78F
BE2AC57E
3E34FF43
3E0632C2
BE1D86A9
3CCCF8D7
3CDEA034
BE4D701E
3EA62E0A
BD846499
BE6B8A5D
3EA9B691
BE77763E
3D13D20F
3D5E6ABA
3D30E2C1
BE702470
3D86412D
3DBF9E7C
BE0E4DE4
BC36ED67
BE8D8B3F
BE9BE4AC
3E82B218
BD332379
BF0D46A2
3E9D32E8
BE5E8F2A
BC26C5D2
BD86E19C
BE33A81E
3E72DDBE
B98E1501
3DF483CB
3E07EE0B
3D4DD50B
BE1C6195
BC274C0A
3E1FFDA4
BEB7824D
BE7852B5
3E50DC77
BD0B3919
3CD9F905
BF04ADBC
3CE1437C
BDAFB4C4
3DA6948A
BD0810A5
BDC15D2D
3DF11516
BDC5F17C
BE81949F
3E73E9A7
BC9107FB
BE6208E1
BD381840
3D4B1141
BE7E596D
BD1C8861
3E1A5C1C
3D3BF1E9
BE6EDAEC
3DC8294A
3C3CD35B
BCB7A3DB
3D8C01E7
BCE51090
3DE71477
BD96FFC1
3DA6687F
3D4E9920
3D8A1273
3D31C326
3DC08BFC
3D6F954F
3DBA8A40
BDB65343
3A97A67A
3CEC69B6
3C49AFE2
3DA58E65
3D4C7B03
BB08A47F
3D03E532
3E867A31
BDDE774F
BCF995EE
3E6681ED
3D1BF163
BCDE785B
3E13FB37
3DD4506A
BC5B1A6D
3DB9B563
3DE9C886
3CC6088D
3E0ED95A
3DACD0FF
3DD9A49C
3E9171C1
3CFAD6CB
3E1159C5
3DFC74FB
3E2A4335
3DA304CD
BCFB2895
BD052B4E
3C35A20E
3D761ED6
3DCF35E3
BD9423D9
3D5F6DB9
3D805DD9
BD121FF3
3DEFF328
3DFAC604
BC8DC550
3E24BCF1
3E278078
BCB1A4BE
3CF53826
BE660E0F
3D333333
BD7968D7
BD8BFB16
BE0A54C5
BDF44806
BD593815
3CBF9E7C
BE27589F
3CA76534
BB817FC7
BE4806AF
BD499BF6
BC10E66D
BD0B19A4
3DEE03B4
3D8E67D7
3B1B8455
BE21F299
3DEAE968
3CBB8A1A
BE429457
BC7CFC40
BD80AF1D
BD6E0C17
388E9B39
BD522C88
BD46E2A8
BD74DF05
BBB40F67
3E0FBBD8
3DCCBA73
BD730D74
BDB68F08
3CF8A4C2
3D384FD3
BDBF4DBE
3DC9374C
3D9BC665
3CDE785B
3D36B1A3
3E81C7DE
3B6BAADE
3C8FABDA
3E07835A
BCB7457C
3D60AD8A
BC7D2A63
3DD1E860
3E0B5E0F
3D452503
3C34F616
3E0688BE
3DAD2242
3E2BF488
3D0DC982
3E1EEB2D
3DEA2A91
3BF2D7F9
3E2ED7C7
B9D1B717
BBB8F9B1
BE0575C0
3DA5FD05
3C9DBA91
BE0AE254
3D0E4C94
BCC0DD40
BD0549B6
3DFBAA15
BD25CB36
3CFC99AF
3CD5ED07
3D0A8D22
3E4123C4
3C8FF10F
3B2E2110
BC9BC558
3CB8E087
BC62046C
3E9991DE
BCF69A91
3E5032DB
3E8A2C02
BEBF2581
3DEFA2F0
3E72990F
3DF0B8D0
BD4DD1E5
3E4F6F4C
3DD66A55
BC58622C
3EAF52DB
3D8A19CA
3DEF4385
3EE5E4A4
BF13835A
BC42C5E3
3F0AAAE3
BEEC90E6
BCDE0B4E
3E87381D
BD9AC259
3C1FC6DA
3EAFFC11
BDA225FA
BE27CFE6
3EB7544C
3E1266BA
3E3037D6
3F1C300A
BF07B7A6
BC3FE7E2
3E8607E6
BCE8576D
3CFB82C3
3C94141F
3E312275
BD389E77
BE8C8F75
BDB7E3D2
BE003A75
BD7AF74D
3E31ECD5
3E77B5F2
3F03A030
BE712F0A
BD9CB924
3D06AD2E
3E449A13
BE34573A
BEB3F61B
3EAB0A70
BC9BC127
BF3578E6
3E4E0935
BEB9E0A4
BEE47560
3E47EAE6
3E62F987
BCDB24EA
3D3E2B49
BE261A1E
BE83630B
3EC43266
BE86BA6B
BEECAE00
3E5863BF
3DD7DD01
BED3E2B5
3E8C9928
BE537825
BF22C109
3F000043
3D164C73
BBB42891
3ED63A19
BDBCE39B
3CB07F24
BE6FC9BC
BD0A57A8
3C293AF7
BE443CC0
3D96030C
3DE99392
BE16034F
3D3F20A7
3E055582
BE65AAB4
3DE3EAF7
B9ABF76A
BE95D7ED
3E33F812
3D6E9574
BC997C3D
3D893A71
3D95D0B7
BB45FBF8
3D3662FE
3DCFBA88
3D3B6567
3D76B7ED
3DF0EDC4
3E2773E2
3DC0DED3
3D5CB89D
3D32A498
3C4FFEB0
BE4187A5
3D709D8C
3D933227
BDCBFD2F
3E0EC248
BD8AAD1D
BBA5B531
3E13A0C7
3D767B1C
3D3A4F87
3DA32FCB
3E0BD018
3E284FD3
BD4842FA
BE2ED289
BE39BED3
3DA57321
BD997EDC
BE425B75
3E70DB6A
BD25D074
BDEC3DAB
3E908ACE
BD042A67
BDADEFC8
3E84F50A
3D97BE12
BD3CCD10
3CF44913
BE51C8EB
BD2D245B
3D7E468D
BD8DF58C
3BD9BE4D
3DEC97D9
BAF75537
BCFDDEBE
3DA569B1
BD43F91E
BC8C5650
3D88FD1A
3D5C0011
BD8E68E4
3D94AA97
BCE07E5A
3CFFAC1D
3F0B8748
BD29D1F6
BE230F8C
3E168BE3
BD25D5B2
BD5EBFA9
3E4F8FCD
3E103E64
3CAB430F
3E170542
BD81E8A3
BAAD8A11
3E0B8280
3B9552E3
3D09CE4A
3CF1E29B
BE150225
BD006291
3E9D3FC0
BD05197A
3D6F74CD
3E971737
BDA99BF6
3D87F90E
3E57D06C
BD872FBA
BB967019
3E5ECF20
3E0B5D89
3C9003EF
BCE872B0
BDD10668
3D41094A
3E4EA67F
3D8B7D41
3DD59792
3DEC814D
3E1D872F
3D1A3B15
BE166F50
3E0AF9EC
3DA9DE8B
BE7E2196
3DB6848C
3E2C679D
BDECD8DC
BD807703
3B6874C9
3AA0F4D8
BD671583
BBB1465F
3E1FD8AE
BDDB15B5
3DAD8BA4
3DD83F92
BE708312
3E48387E
3DC1BF38
BC8869C6
3E9B1AD2
3DAD7ADD
BDA013EC
3E810F0F
3DE13986
BD3C9364
3E2A2F06
3E44F7A9
3DC74D16
BBA52EF9
3E628848
3E7373F3
BDA3CD9A
3D106BBE
3E775B3E
BBAA2A0B
3D1E17E3
BD2D7C70
3C941E9B
3E17C4E3
3D1C1F86
BE9038A0
BE2EAA2A
3CE0029F
BE408030
BDD539B9
BE443F60
BE11ACDE
3D2239E7
BB8AE74F
BE6A79FF
3DF72B45
BDA9BF9C
BD92B66B
3E5DEEFE
BDF803CD
3DA373F3
BD8DCA8E
3CC16BDB
3D53BAFE
3D8CB6C8
BDAB0293
BCACD7CF
3E5893B8
3DA45BAF
BEA1C25D
3DF71088
BDBB0468
BE8EEFC3
3DCDF9BE
3E881DC1
3E0828C3
BE62ACB8
3E5E1933
BC5373B0
3D5DA273
3E25B0BC
BEB9539C
3EBCEDD5
3E89D495
BF245858
3E4B6849
3E2FC8B0
BF22C96D
3C93404F
BDC7BC3C
3F214AF5
BEDB2703
BE97FAA0
3F209093
BF1F76A3
BE93A55D
3F1E2414
BF1E567A
BE757604
3EE0ADAC
BEBC5AC4
BEFF20C9
3EC50E99
BE04EB14
3E080022
3E7FB2AB
3ECDBF27
3D02C908
3E96149C
3EAA4DB1
BD6C9082
3E56FBD2
3ECCC4CE
3E563A19
3DE2F380
3EB7AE9B
3D2D3416
3E03D923
3E3146A2
3D414C66
37A7C5AC
BF992629
BCDAE3E7
BE8C8733
3E26B980
BD88CB4B
BE1DF1E1
3C11D9B2
BD38FFFC
BD771FBC
3EB2F09E
BB87E38F
BD08F755
3ED53522
3D9158B8
BD22F167
3EC5510D
BC83A96D
BE329025
3DA3443D
BC28869C
3E57A850
3D3547E0
BD276534
3EB842D9
3E29C90C
BDD3660E
3EBF0AE5
3DF39B02
3DE93B7E
3E4F3C2E
3E6DAAD6
3CFC0B13
3E9CC6C5
BE985250
BD15E072
3F0DEF52
BDF97354
BD81F213
3EAC6C98
BC59018E
BD155608
3F24AE00
BEA0C36E
3E5FB9BF
3E92EB81
3DD2A0EC
BB96CC60
3F03D5CB
BEBBFBDF
3D024F66
3D9D32C6
BEAA17D3
BD5FAEBC
BD529564
BEACB685
BE83C340
3EE5F30E
BEFACA15
BC0A6DAD
3D8236C1
3D230FD0
3E56D2ED
3EA2E9EE
BE828E0D
3D4EE5AC
BC99E732
BE8DEC5F
BE78255B
BC3F11F9
BF093E60
BDF7867F
3E7B1034
BEAE327F
3DD0D0EE
BE2FCB0C
3EE335B1
3D0CC89B
BC90385C
BC022BBF
3AFA3769
BE206141
3CD2BB23
BE0C154D
3CEE2EB2
3DB5C7CE
3D1DBA91
3DF13837
BDC5E679
3DD7F067
3D48B75F
BDDEA1C7
3C329E4D
BD3E7297
BD4F3ECD
3D53C686
BE968683
3BBC2763
BDA61D86
BDD7F8CB
3E2C5005
3D3D9FD3
3D1C5B4B
BE099E0E
3E09F83C
3D8C5E2D
BE47A3DB
3E59A7C1
BD3C7A3A
BDF715C6
3DE436FC
BDA7296F
3D845996
BDC4C7B0
BE93BF0E
3E123572
3BE5B424
BE5F5D35
BD062F5A
3DED2780
BE09E493
BE9112DC
3E4E831B
BD8A4980
BEAA7FA2
3E966F0D
3B520AFA
BD9009B3
BD21D430
BE8562BF
3E105D53
BD3A0F91
BEAE5797
3E0547E0
BC0BC16A
BE88FB44
BD8D9D77
3C935B92
BE4F0E4E
BE915A29
3E88D1B7
3D424A27
3D77AE58
3B3DBA0A
BE4C84B6
3D8FE3F3
BDA60CBF
BDE1272D
3E0C269A
BC1934F0
BCC430B1
BC466905
3D900C52
3BDF47FA
BE2B6284
BC13C89F
BCD718EC
BEE383CF
BE34B48D
BC37CFE6
3E1598E1
BDFE39F7
BC989BD8
BE09899C
BD1F6988
BC34CC25
BDEF8B59
BC5701DA
BD56BCA5
BE6BB16C
3C6C7432
BDBA1BA0
BE3C853C
BC9C7FFE
BB2B2E17
BCA21859
BD9DD11C
BDF89939
BE12DECA
BD2EB3DD
BE8735C2
BE855E6C
3D8E6213
BE57A4E8
BECB0293
3DA28DCA
BDFE4BCB
BEAA031D
3DDB4FE8
BE0FF2A1
3DF9029B
3DEBC7B4
BE49E2BD
3DCB86B1
3DDF9E7C
BE860B4E
3BB7B289
BD2D2136
BDBDF091
BE370585
3C557BC8
BD152E30
BE4F7BE1
3D49BA5E
BE3D0353
3DED740C
3DAE6213
3DE4C272
3E664BEC
3D80C309
3C1E7B81
3E70DE4C
3CAD794A
3E481494
3D2AF577
3DFA365D
3E6460EE
BD0B09EA
3D2B56FC
3DF8FDE3
3E1E4FFD
3C7F21B4
3E5D438D
3E896FA8
3D0D8DBD
3E409785
3E2ADFF8
3CBF8DB5
3E7940FF
3D35FA22
3D9B1B7A
3E52C387
BC359147
3B7AACDA
BC43E319
BEAB71FC
BD8BCF92
BE1A4010
3E21E8A3
BB98AA86
BDD9AD86
3E0ED0F6
BD62E903
BD81986C
3DCED4E5
BD022142
BD790C91
BA87A8D6
3C8B9347
BE06E7A3
BD32E8C0
BE2C5048
BD397BB7
3DB63ED1
3D132618
BDABC72E
BCF98D8B
BCD143BF
3C84BC27
BE216C1E
3D02C3CA
3D31F14A
BE6E7A74
3DB0867B
3D853112
BE57F887
BCABB01D
BDB712A1
3CC9E881
3E02B5A2
BDA6F71A
3D69C454
3CF42FE8
BC316C1E
BC3402D1
BD4FB656
BD0BD231
BE39C023
3C94A6EC
B9B24207
BDDC4007
3D75275F
BDD6CCE6
3E04F69D
3E195FAB
BDC6F8AD
3C18B71C
3DC706D5
BDC310DC
BE3D61F6
BD3E74B0
3D17E026
BE51E18F
3D7B8B26
3C89B520
BCB08787
BCC1EFFA
BDB8EA7D
3DA94142
3D9A3B9B
BD290ABB
3CD57FFA
3CF95B36
3C83EEA2
3D1E96C4
BD70E0A8
3D35A20E
3CB1337F
BD47C201
3CDE28AA
3D807EE1
3D27D999
3C82C4D6
3E6CD35B
3E490AFE
BD0C22EE
BF26E936
BE4D0C80
BBF97EDC
BDF7C1BE
BD4BA301
3D265ADE
3D82046C
3E33DF2B
3E2AAD1D
3E958234
BCF1B691
3E32ECAF
3E8BB279
3E548C2E
3E7C219F
BF184A0E
3DCE64B2
3E785B18
BE572863
3DC5F5AE
BD02ADC5
3E7C2CA1
3DA2131B
3DB186DB
3EE59F90
BE1CE63A
3DC80171
3E89FB83
3E80F451
3EFBBBA5
BE594C88
3DF25B31
3EC9EB85
3E10B136
BC39A5A9
3DA87F45
3E9D12EC
BC277E5F
BE876EE7
3ECD9685
BE95E311
BE20DA5E
3ECC68CB
3DFDCE7D
3F044502
BCF97EDC
3E11B973
3E966C4C
BDC68230
BE26366D
BD6C43F6
BC6310DC
BB93C03C
BF16BAF1
3EB80086
BE8C7043
BE73C18B
3EBCE7EF
3D9481B2
3CF47304
3E208A69
3E7C621B
BDD867F1
BE5D690A
BDB1A75D
BEA9DFDB
BC0BD231
BD3EA3DF
BF03926C
3DA4F228
BEA3C89F
BC037B4A
BCC562E1
3D0435F0
3CC7D1BB
3E04C448
BC9C1F86
BD2860DD
BE0AB3AB
3D077681
BC7B3B75
3C516335
3D461416
3D2AD2DD
3E0E27E1
3DE16CE8
BD557258
3E2FD75E
3D3F9831
BD05B9E9
3DA0B45B
3D9A96D5
3C43AC93
BDEA82A5
3C93E814
3E2DD8F9
3CC7B02D
3C22F05A
3E3D35A8
3E4C01A3
BDACE13F
3E2F6B1A
3ECD01E2
BD6E49F5
3B58DBCF
3E9F9F02
3D4F3238
BD1B6A1F
BE140464
3D479B35
BE097FA6
3D467382
3DA400FC
3E1D3309
3E133B10
3C86CCA3
3E6D8B1E
3EABDFF4
3CF72D5E
3E1CEBBC
3E5AD96A
BDB101B0
BDF18FC5
BE2CCAB4
BE383276
BDD5BFF0
BE597CC4
BDDF58C1
3C9D94D1
BD53586D
BD44C48B
BD251A00
3CDB573F
3D32BFDB
BDE1F3A5
3CBCE209
BD6E9AB3
BD6BEAD5
BDDB3D08
BD443A21
BC32D906
BE1AB53D
BD75C9E6
3D5713AD
BDE597D5
3C2C8E69
3DD01EAC
BD32CE89
3B67BC3C
3D9B0037
BCFA8B4C
BAC8ABD6
BBCEAAF3
BE7A1405
BD5B61BB
3D3B1077
3CC358B0
BD4D60A6
BCFBEDB7
3C496894
3D043D47
3DB8C5CA
BD99FD37
3DCE3D60
3DA1C68F
BE0D523B
3D3A7A85
3DC4D3BF
BDF89268
BDA35DEE
3CD2FC26
3D89B739
BCB63B25
3D97D849
3E29C0EC
3C0FBCA1
3DBBE4CD
3D248E8A
3DDD5348
BB9BB6AA
BDE57B85
3C9A1555
BD68661B
BE1D8772
BC912770
3E0CD2D4
3DCE52DF
BD582BA6
3D5C91D1
3E21AEF7
BCDF71EB
BDB7D1FE
BCA63737
BB86DF83
BE3E742A
BE20BBB2
3D1716D3
BE181F97
BDB62952
BCF1A3B1
3D895F24
3E516DB1
3B2C3A86
BB48ABD6
3E2B86B1
BD97AB32
BDBA7C9E
BD647992
BCC08744
BE123A6D
BE98CBD1
3CD6ABDE
BE8A4EBE
BE175297
BD9AA79C
3E632229
3DDBFCEB
BD3D77FB
3DA20685
3CE29308
BDEC6AC2
BDF4CEC4
BDD71C11
BDAD4FDF
BE34C61E
BE8A3077
3CFEF7C2
BE691538
BE0EE808
3C5AB9F5
BD4489D2
3E869F6B
3C28198F
BCD60631
3D51A006
3C8B73D2
BD026677
3E02F273
3B99FA12
BE1F8727
3D3DD335
3C45718F
BE09285B
3C817DAF
3CDED6BB
BDC5375D
3D9B7BF2
BB0BB906
BDC4BCAE
BD1CAAFC
3CBBB624
39D23D4F
3E1BC771
BDC54691
3E06338B
BC84C6A4
3BCF52B9
3D95FF61
3CA009F6
3D3EB8D8
3D1054AC
3DBF4129
BDA31487
BDC3DEE8
BD5246BF
3C53B29A
3D12CE03
BD684599
BDE514C2
3E0D6A16
BE3E5929
BD41A7A0
BBDCF462
3C0055FC
BC91D367
BCEC2CE4
BDF17B53
3D857C91
BD50D5A6
3BC3547E
3E4913A5
BDF60392
3D3A3876
3D4A32F4
3DCB7564
3E0C447C
3BEA0FD4
BD1C50CE
BBA90CD4
BD9ECF64
3D7D9557
BDB4F69D
3D381F97
BD1DD7ED
3BD8F4F9
3DFC9D5A
3D95E95B
3C125BB8
BE0F1CFC
3DFEE675
3D3E3194
3D5ED7C7
BD0D690A
BD17C915
BD098D47
3D114B16
BDD0AAA8
3D086595
3C8389F8
BC95E5B0
BE34EDB3
3E0621B8
BDE5EFE9
BDDFD8AE
3E1A95C8
BEAD27E5
BDEEF1BB
3E04BF4D
BDDC0E39
BD75D031
3E58BF3C
3D9AB96F
3D70307F
3D1FE21E
3DBE01DE
BE26A37B
3E44ED70
BEEB63F5
3DECD185
3E8B777D
BF0DAAA4
3D9C2C1B
3E8D26B7
BE237154
BD8954A8
3E06DBD7
3DB5EFA6
BD58FA37
3E736A83
3DE8D7E0
BDBD1809
3E0DD8B6
BECAE6C9
3E8BAFD9
3EB51655
BECE1A82
3DADB164
3E964BCB
BE305037
3C946C33
BD30C34C
3E494E5D
BE79B90F
BDB79E9D
3E83CF70
BE117B96
BD9DE69B
BE8E5A57
3DBF6556
3E50F6AD
BE9896DD
3BB502AC
3E254CDB
3C83FF69
BC191BC5
BE78476F
3EBC729F
BE4878FB
BE96DE12
3F1CAB50
BDDC50CE
BDB271BD
BD924C83
3D91EFB7
3EAC6541
BD88155D
3E246738
3E1C00DA
3D24A6A8
BD2AB042
BD5903A7
3EA36502
BE2226C4
BE7DC012
3F242EA9
BCAF9874
BB1BE8FF
3FAAC07B
3D7D5A9F
3ECB777D
3DDFFB48
3E69C023
3C85D745
3E87279A
3DFDD4C7
BE0A1A50
3DC60E52
BD1E1F3A
3E8CB09F
3D6DCA08
BD67210C
3EF04D34
BD7ACA36
3BAB1D50
BDA83A97
3E646A1A
BE5A8F3B
BE9FD545
3D946024
BEB5FC3B
BD44D339
BD8C32A9
BE02FEC5
BDB15055
BC8945FA
3DBD1FE6
BD19AA61
BD02A348
3E1FAD2A
3E4520D1
3E942F40
BD2FC265
BD8AC322
3F231B37
3D6C55C9
BE8239E7
3F56A77A
BCF33659
BE3E5040
3DEE9EE4
3E24912A
3D746FDF
BE2148FE
BDFA83F5
3D71140A
BE820F2C
BE267E41
BE844B0A
BED88073
BE6AAA7E
BF14AC3B
BE8509C0
BE855001
BD898809
BD1D9A0F
3E8B8306
3EB5206D
BDC2D384
BDE4406C
3DCEF0AE
BD7AF859
3E86D091
BDB485E4
BE89DFDB
3E2475E6
BEA69D95
BED93AF7
3E1C7C52
BEB6B4EA
BE21FFF8
3ECA6480
BF0059FB
3E5CBEE8
3A339192
BC6EA20A
3C02BA5A
3D6A886A
3D6F661F
BC1CB685
3CB81301
3BDEE350
3E3B90EB
BDE2DF0D
3D3EDC7F
3D963DC5
BDC8CF7D
BD72580C
BD92EF0B
3D1D6495
BDB3B6CC
BE413C25
3BC72192
3E22EEC8
3DBDEDF2
3CFFD1DD
BCD6B442
3E5476F3
BDB0ADCD
3D6BB880
3E30913A
BE232C1F
BE852418
3DEA771D
BCC855DA
BE64CCEE
BDB5F99C
3DE8C79F
3E3C7DA2
3E99A88B
3DD97460
3E01F7D7
3EAB126F
BC526741
3E113123
3E8BBF94
BD310DBF
3E41700D
3DB3F749
BE1D3240
BD05E4E7
BD1904B4
3DC69F06
3E95A4F0
3E252DAA
3E4ED2CC
3EB0D3F2
3E30E347
3D93C3E7
3E655C96
3E36F113
3B48DE2B
3E45C359
3E08F14E
BE0536D6
BD43504C
3B817764
3DE038A0
3E5D4281
BD5B823D
3D304253
3E80E62A
BDC65BEA
BDBC3B4F
3E81ACDE
BCCB46BB
BDC925FF
3E93A1D3
3D5E279E
BE2191DE
3E2B26C0
3DF3DFB1
3CA72431
BD1DE58E
BEBE5669
3E20307F
BE3A25D9
3E1AB1D5
BD249E45
BCBF1412
3E9036CA
3B216A48
3C5084E8
3F0AD320
3D4200C1
3D4E9707
3EE214F0
BE353C58
3E56D7E9
3E85C316
BC07980F
BE698E54
BE61C715
3D44C597
BEAF2C52
BED074C9
3E0B43D9
BE87164C
BEE83F92
3EA37EB3
BEB21944
BEE090D6
3DDF444E
BE86BDB2
BE3B738E
BCF861A6
3E7215BA
3EA2A68F
BD942785
3E54C5DA
BD8EE286
BDDFA094
3CB4F82F
BE87403E
BD0C49BA
BEBBBEEC
BED3DDDB
BE221C04
BEEB912E
BEA3732A
3DA239E7
3D3748A1
3BC81D3B
3D38854D
3D761459
BDB15A4B
3D9CDAB2
BD7F3F10
BE524207
BD591DDE
BE55F41B
BE892D99
BDCA6330
BE78509C
BE120C8D
BC7EDA66
3DC9C993
3DE6EFC3
BC61E2DF
3CEA0770
3DC86402
3E75E28B
BE368C69
BDC7C6B9
3D9A06A7
BE5EDF1E
BD2E7A31
BDF4A904
BE954A5E
BDD266BA
BCF1B25F
BD1F0C35
BE86084A
3D86516E
BE4FAF86
BD4D551D
BDA1D085
BD0B966C
3D9A8C58
BDB87725
3E2369BA
BDEB4D05
3E093D53
3B9DBEC2
3B09D27C
BC66E654
BE950A03
3E41ADA7
3D9D5E4A
BE901A9C
3D79EBEA
3CD4CB9F
BE67F66F
3E7186DB
3C5B8349
3D1DA598
3E58472C
BDA54478
BE0B3893
3C9A3098
3B5D93C4
BE8F53E7
BCDC93EA
3E020B3D
BE0026CC
3E35CCC9
BE0A209B
BD6F7E3D
3E8E6080
BE3CDC87
BC976577
3D98F8A5
BE8CA255
BD5BB9D0
3DF042D9
3C0750C2
BB7CD680
3D6136E7
3E02849D
3E914DB6
BDD2146A
3D673605
3DE440F2
3E8806F2
3E95147F
BD6C11A1
3E5E496F
BD138AC2
BC11C087
BEADC0DB
3E676E1E
3E116FCA
BEC54435
3E58F430
3DAACB86
BE84A1F1
3D80E5A3
BE1C197E
BE5AB3AB
BD9F8445
BEAAB6AE
BE6323FF
BE39F1F1
3AE496EE
BE5EE2CA
3E88765C
3EDA6C5D
BDBBCDBC
3CE40421
3D187C63
BF3713F0
BD48472C
3EC59C06
BE7410B6
BE9950B9
3ED49C0B
BD9E6ABA
3C8B3700
3E2AAEB0
3D93AE68
3E0AE968
3E9BD578
3DD9D020
BE1A3D71
3E94E960
BD1B0EE5
BD1A60D4
3E97B784
3E1D39DA
3CFF7597
3EA7C86D
3E327F5F
3DB23897
3E7990F3
3E9572DE
3D687E39
3EBE7CD0
3E562889
BEA6B789
3EA49082
3D6EF912
3E977425
3B3E0DED
BD95D80E
3CAF5FD4
BD5E6256
BDB7B17D
BD74E22A
BDB61CBD
BDAEB91B
3D8809D5
BE20B136
BE6BE879
BDA97742
3E63B7D8
BD1FE436
BC6E7C4A
BE68AEFB
BE7883BA
BDABC72E
BEAE5BC8
BDEBAB65
3E6E7C07
BEC56430
3C624BBA
3EC738C5
BE9BC98A
3BF0C77E
3E73C85C
BE6CEE5B
BC20F4D8
3D0EDC3C
BE1C67E0
BE4C1D2A
3D625636
3CA2CA9B
BD87253E
BD743FA3
BCA1858C
BD8A4E38
BE0738E7
BE134613
BE089B52
BDA2F512
BE0C99AF
BEB41E15
BCFD5ED0
3D124BFD
3F8C0DE5
BDB5104D
3DB549F9
BE4FA659
3DDBD513
3E0F1DC5
BE912E62
3DBE5A79
3DE4D120
BE021251
BBF1E4B4
BC630CAA
3DF18330
3C6AFEE7
3DD0D738
3E151D69
3DC270F4
3D57F413
BC85F288
3E44E50C
3D8CF638
BDDB7521
3DA0A41A
3AE1932D
BCAC7B89
BD0A009F
BDA5DAF0
3E31BAC3
BDE54CDB
3DED9946
3E09B6F6
BD6EAC86
BDB4B620
3B14B381
3C3395C4
BD16DA01
BC70A1BE
BD960525
BDA54584
3E292429
BD9BEC25
BDC64884
3E8CFFA8
BD6D02CD
BBBE37DF
3E881B43
BE102214
BEB09BB7
3CA09678
BDCC5868
BE29784F
3DD2A27F
BE21348B
BE378466
3E068C69
BCF04791
BDB5C5B5
3E10B30B
BB91E215
BD950F41
3CE670E3
BE355326
BD7544BB
BB763800
BC5C5932
3C4FAEFF
3DBB3F21
BD0305D9
BCBF0564
3D4B6630
3D5F4A12
3D2C4F7F
3D0BA626
3D1185CF
3DEF776C
BE2D2FE4
3D0CCCCD
3D367F4E
3EE2A92E
3E49A911
3DA0029F
BD547065
3D9207D5
3E140421
BDEE9468
BE20F6F1
3E0660E5
BEC338B4
BD3D5BAB
3E4C1A8B
BEA97C5F
3E73AB86
3F1AAF8A
BE962ED3
3E582236
3E0AAA3B
BC5E3327
BD2FF7E0
3E35D895
BEA471D6
BDF4DA4D
3E8D6606
BEBB3871
BE40AD04
3F2C4231
BECF355D
BD3B9CFA
3E93A626
BE9107FB
3E4B8455
3E406D0D
3D022DD8
BCD1B930
3EB44695
3D0FABDA
BE8FA5D3
3F3ADE76
3E2A06A7
3DDAD8E4
3ECA411C
3D986EC1
3EC61AC5
BE68BDEC
BD8B6E0D
3D48CD64
3D51B0CD
3EC66517
BE9C1F86
3E420C07
3EC725E5
BD57B41C
3E0A8A40
3E9B9B67
3EB15098
BEC4A87E
3EAA886A
BC1C1722
BE252370
BF13BF1F
BE8471D6
BEE6B357
3F1367F5
BB5DB552
BF301755
3F3175E2
3E9B37A8
BF6431F0
3F0DD13D
3D5511E0
BF5E5DF2
3D46DF83
3D215550
BE2A8DA8
BEC027B7
3D092FF5
3CBEFF19
3EB93101
3DCFD9FD
BD434A02
3CF7A919
3D79B995
3C75DBBA
3DCA9931
BC04F095
BB16249A
3C9567DC
BD04DCA9
BD916B12
BD490A35
3D24CF8D
BD115CEA
BE3359FF
3D5BEF4A
3D7FA6DF
BD336AC6
BD6E5DE1
3C90B631
3DD4245F
BD376D55
3D1AC8A3
BD97F5A5
BD9DBF48
BD13D85A
BD31C433
BC621102
BD176146
BE5E09FF
BC2979E1
3D9C5693
3D0D5736
BD162E0A
3C389D6B
3E42B3CC
3CBCF701
3C8C5005
3B1539B9
BD327DCC
BDACDF26
BD60D888
BD9661F2
3BE368F1
BD0769EC
3DBF290B
3DE12275
3CC58256
3D0F82F5
3D84C597
3E5B8412
BA858FF7
BD9B7415
BC1FB1E2
BD27ED85
BE004E1E
3E00D90E
BDC23D0C
BE117A46
3DEC4EF9
BB5801B4
3E15857B
BD52EF91
BDAA4229
3DCCC576
3E1E4B02
BDED1288
3E18E087
BD2D538B
BD505D10
3D2D538B
3D2F0175
BDC598E1
BCC4A622
3D916766
BCAF1887
BCD62BF1
BEB53AC5
3E5EB181
BE6E98DD
BE13A711
3E31EDE1
BE691106
3D126D8B
3D84DB9C
BEBAE42A
3E8E1EB4
BDC7BB30
BEAAE48F
3E912A95
BE353155
BEA35222
3DEE9D52
BDA4C405
3E5FDE2F
BECE3B69
BD84E50C
3E8AB735
3DCADABA
BD4F8E7E
3C245D42
3F0AEDBB
BD96FF3B
BE8A3F03
3E200863
BD38B370
BE6465E9
BE995A08
3D37963A
3E0078D9
BC90F734
3CF65343
3CDD8516
3EB53177
3E0D1AEB
3DB903A7
3E767126
3B829CFE
BE18B978
BE992EA5
3E084231
3D618EFC
BF0F0DB7
3E2CDF26
3E83A451
BDC193B4
BE56B8B7
3E3A133C
3CCA59C0
3D7F5C6C
3E7C1334
BDEC8041
3DE290EF
3EC1E14C
BEEDF0B3
3CB8609A
3F173CE6
BE662A5E
3E921A2E
3F15C8A8
BE4E0503
3D3B6FE3
3F1EF599
BE718549
3DBAC4F8
3ED02321
BEC9B4DD
BE02CA58
3E7D4E4D
BE6AA002
BE176F2A
3E416228
3E2D12CB
BCB0F8C6
BD1F0C35
3EFA5F85
BDBB530D
BC20A527
BD007FED
BDDA8B4C
3D0C5C9A
BCF26289
BCCF1801
39DD3FE2
BE405858
BC9693C0
3D1273D6
BE315F03
3BD5B680
BD56312F
BE3A0A96
3ADEB0FB
BE316441
3D2C4934
BD467DFE
BE05D420
BDC9B5A6
3DE3810F
BCE1EF74
BE04280B
3D8E22A3
3DA70004
BE1F401C
3CB19829
3DAC3B0C
BDAE2110
BDB4D489
BD9DFA87
3DB10881
BD320A74
BDD53587
3CEA593A
BCDEC3DB
BD418B50
BD570A3D
BCB41BFC
BD4EF77F
BE0DEC1C
BD734D6A
BDA16A48
3CC1A8AC
3E0E25C8
BDCE1BD2
3DF4E011
3DD94531
BE5B71B9
3E29CA5C
3DCAB042
BD8BC622
BCB8DA3C
3C273F75
BDCBA40E
3D54B9CB
BD6670E3
3D56733F
3D8FE8AB
BDCFAA47
BD6FE60C
BD8A3487
BDB3A259
3D83CC08
3C820C4A
3D4D7F0F
BBFE718B
3CECD6C3
3DA66905
3C2C18F8
3DDC25D0
3C10FB65
BD33929F
3D4308FF
BCB9A5A9
3D335C18
BF0E708F
3CF29D41
BD2AD2DD
3D85C91D
BD9CF13D
BD346AA1
3D7893FB
BCFF23CD
BD8F8D71
3C9D388B
BE485EC4
BC1E8C48
3E23D9EC
BCF49492
BD39D6F1
3DB0C1B9
3D170825
3DD1843C
3DAC4157
BDB96074
3E051C5C
3DA4F4C7
BCC27200
3E421EA3
BCB760BF
BD8A1837
3E0960FA
3CE1B4BB
BCA2D2FE
BDF77D95
3D4752DB
3D7969E4
3E59C172
3C406E1A
3DA6D7A5
3E818E54
BDC5271C
BCEF60E1
3E42B51C
BDF4E22A
BD86F71A
3E37E73A
3C0997C4
BD759AB7
BD1F5169
3D8BE37E
3D618CE3
3E2C9C0B
3DB62CFE
3C19ED7C
3DFD1351
BD176BC2
BBE8101F
3DAB09EA
BD0750C2
BD1AC68B
3DD7C915
3BBA9D1F
BD1A6613
3DBF7E80
3D25F84D
3C159E62
BC711B61
3CFA58F7
BC1BE09C
BD2D97B3
3AC7192F
3CF0ED3E
BD091AFC
3D833A47
BD74A665
BE185597
3D410518
BCFD6B66
3D59D12D
3C8E68E4
BCCA98AB
3CBD70A4
BECFC8B0
3D1C0874
BCCDD0D9
3E026528
3D773F31
3D03CE21
3B537C13
3D86AB9B
3DBA415F
3D29C348
3D5D9E41
3DFEFC7A
3D570825
BDA9068A
3C2FE1DA
3CF95B36
3C560A63
BCA2680A
3D896894
3DF73E25
3D02F512
BD6BDF4C
3CDFB507
3E5C8191
BD7A6EFC
BD5363F5
3E845309
BE0CDF26
BBE453D2
3E12F599
BDB4E443
3D480629
BD4ACC0C
3E0FA872
3DCF1455
BDEF6AD7
3E3BE48A
3D9D8277
3B5ED289
3E38D25F
3B5DD6E0
3E44C554
BDACA70D
3DB4677B
3E1A52F0
3CBC4F3C
BCD04A30
BDCC20D5
3DF4D50F
BDA62670
BD6427C8
3CB43958
BD82DA55
BCE54930
BC02491B
BE1A9692
3DED4E4D
BDC80BED
BD06C11A
3DEB3355
BD02B841
BD0FEEF6
BDDD82FD
BAE92D56
BCF6A0DC
BE695AAF
BDCFE261
3CD51505
BE330058
3C3C0A07
BE35BD51
BD2512A9
BD190082
BCB61134
3E48F25A
3E11376D
3C332CE9
BCEC3761
3D4E23AF
3D9CBAB6
3E840810
3E380779
3C92C8C5
3E8364BF
3ED855B9
BD9C3F81
3E2F67B2
3E9AFBA0
BCA57C91
3D896356
3EA417A9
3CCD8341
3D1FDAC7
3E8C3CC0
3DC3CF2D
BDEBB2BC
3ECDB63D
3DCA25D9
BEC8EE07
3EA6616B
3E4010C7
BEC87C63
3DA5931D
3D9D29DC
BE621EE6
BE7580C3
3D591687
BDBF5CF2
BEC9DB44
BCBB9F12
BE16A594
3E5C6FBD
BE16E158
BE91A6F8
BDE6C7EB
BE57878B
BCA91D9B
BE2AD927
BE0082CF
3E536977
BE73022E
BD5A2941
3DD4D402
BDB0A0B2
BDD9BE4D
3DA22899
BE06D6DC
BC3F8B9C
3E5D5A9F
BE25D9A1
3DD97AAB
3E8ACA36
BC9F8E3B
3E316F00
3EF06706
BDA239E7
3DA2E87D
3E56659D
BD529BAE
3C8D62BF
3E818B93
BE7CF9A0
3D223C00
3EEBCB81
BE0FA82F
BCA15769
3EE184A1
BD034D27
3D5B0CCC
3ED96031
BCCD2913
3DCA0B1C
3E5095AF
BE302752
3D353C58
3D3BAFD9
BE869EC3
BD6923E6
BD6C636B
BE27C569
BDFCDF6A
BD5E5D18
BDE9F59D
3DBD5800
3E113E81
BD9171E3
3E3216C6
3E1542A2
BD5AA1D7
BDB66F93
BE2BAECD
3E6AF790
BE0155D6
BA82F0E1
BD375A75
BD24C405
3D272863
BDDF2DC3
3D0332F0
3D3E5D9E
BE52F7F5
3E34E26D
BDFA32B1
BDA1847F
BDC76F2A
BE945EB3
3DC538EF
BD346FDF
BE211D36
3D0D7386
BB6B8950
BEA65CB3
BC059C8D
BC9E55C1
BE93B0E6
BE084E40
3E22AC32
BEA8DEB1
BD0D0BB7
3E66C69B
BF079C73
3DFF01B8
BBAA0019
BE74F4C7
BD488F86
BCFDD441
BEA1D3AA
3D5D883C
BE144956
BEA6F1DC
BDD0D520
BD850ACC
BE9AD107
BE57EAE6
3E980022
BEDEBEBE
BE0A732E
BDAE2C99
BDB19A41
BE02A455
BDF80C31
BE369D30
3D047B24
BD9A072D
BE541462
3D8DA661
BD32CD7D
BE4239E7
BD39FECA
3E38B32D
BDD6F4BF
BD55757D
3CB0BE0E
BD3EF9DB

